<unk>	0
<s>	0
</s>	0
▁t	-0
▁th	-1
▁a	-2
in	-3
▁w	-4
▁the	-5
re	-6
▁s	-7
▁o	-8
▁i	-9
at	-10
er	-11
nd	-12
ou	-13
▁c	-14
▁b	-15
▁m	-16
▁h	-17
▁"	-18
ing	-19
en	-20
▁p	-21
on	-22
▁to	-23
▁f	-24
▁d	-25
an	-26
."	-27
es	-28
▁and	-29
▁of	-30
al	-31
▁in	-32
or	-33
▁l	-34
is	-35
it	-36
ed	-37
▁y	-38
ar	-39
▁g	-40
▁that	-41
om	-42
▁you	-43
as	-44
▁we	-45
▁n	-46
ic	-47
le	-48
▁wh	-49
▁it	-50
ve	-51
ll	-52
▁e	-53
▁is	-54
ow	-55
th	-56
us	-57
▁be	-58
ly	-59
ut	-60
ion	-61
▁re	-62
▁on	-63
▁ha	-64
ct	-65
ent	-66
ot	-67
ld	-68
▁this	-69
ver	-70
ay	-71
et	-72
se	-73
and	-74
ro	-75
▁st	-76
id	-77
st	-78
ig	-79
ch	-80
ur	-81
▁he	-82
ke	-83
ce	-84
▁for	-85
▁so	-86
▁do	-87
▁was	-88
▁an	-89
ra	-90
im	-91
▁go	-92
▁u	-93
▁they	-94
▁k	-95
ir	-96
▁li	-97
▁are	-98
ith	-99
ally	-100
op	-101
▁se	-102
▁ab	-103
ome	-104
am	-105
▁with	-106
▁have	-107
▁what	-108
▁can	-109
▁mo	-110
ere	-111
ol	-112
▁as	-113
out	-114
▁sh	-115
ation	-116
▁j	-117
ht	-118
▁wor	-119
▁ne	-120
ge	-121
very	-122
▁at	-123
ad	-124
▁ch	-125
▁me	-126
▁r	-127
▁about	-128
ould	-129
il	-130
ant	-131
ill	-132
▁all	-133
▁there	-134
so	-135
ter	-136
ul	-137
now	-138
▁fr	-139
oo	-140
ust	-141
▁ex	-142
▁not	-143
▁but	-144
▁de	-145
▁com	-146
▁pro	-147
ers	-148
use	-149
▁or	-150
▁some	-151
ight	-152
if	-153
▁my	-154
▁pe	-155
▁con	-156
▁one	-157
ther	-158
art	-159
um	-160
pp	-161
▁ma	-162
ck	-163
ure	-164
ear	-165
▁like	-166
ople	-167
ess	-168
▁people	-169
ate	-170
▁from	-171
ri	-172
▁v	-173
est	-174
ist	-175
ity	-176
▁bec	-177
ble	-178
▁te	-179
ind	-180
ive	-181
▁al	-182
qu	-183
nt	-184
all	-185
▁out	-186
▁know	-187
▁int	-188
pe	-189
ink	-190
▁just	-191
▁us	-192
▁thing	-193
▁our	-194
ook	-195
od	-196
rou	-197
▁these	-198
un	-199
ause	-200
▁if	-201
ies	-202
▁up	-203
▁very	-204
▁see	-205
▁tr	-206
▁them	-207
▁think	-208
▁pl	-209
▁get	-210
os	-211
▁who	-212
ort	-213
ich	-214
▁su	-215
ie	-216
▁going	-217
▁how	-218
one	-219
▁by	-220
▁act	-221
▁because	-222
▁year	-223
▁1	-224
og	-225
thing	-226
ect	-227
ci	-228
▁sa	-229
▁when	-230
ain	-231
we	-232
▁your	-233
▁tim	-234
el	-235
▁im	-236
▁en	-237
▁look	-238
▁had	-239
▁which	-240
our	-241
ans	-242
em	-243
▁more	-244
▁here	-245
ine	-246
▁ta	-247
▁would	-248
▁comp	-249
▁want	-250
▁really	-251
ast	-252
alk	-253
▁le	-254
ually	-255
ame	-256
▁no	-257
▁world	-258
▁were	-259
pt	-260
▁work	-261
ard	-262
▁now	-263
ment	-264
iv	-265
ous	-266
act	-267
gh	-268
▁their	-269
▁way	-270
ack	-271
reat	-272
▁then	-273
are	-274
iz	-275
▁than	-276
ab	-277
▁don	-278
▁every	-279
▁has	-280
▁time	-281
ose	-282
▁per	-283
the	-284
▁un	-285
ore	-286
▁qu	-287
▁say	-288
ide	-289
▁actually	-290
ag	-291
▁into	-292
per	-293
▁man	-294
ace	-295
▁where	-296
▁things	-297
ild	-298
▁fe	-299
▁will	-300
▁ev	-301
but	-302
itt	-303
ong	-304
▁could	-305
▁co	-306
▁pre	-307
▁sp	-308
▁talk	-309
ud	-310
▁ag	-311
?"	-312
ions	-313
▁did	-314
age	-315
▁years	-316
ence	-317
▁other	-318
00	-319
pl	-320
▁cl	-321
▁am	-322
ff	-323
▁new	-324
▁any	-325
▁make	-326
▁happ	-327
▁ar	-328
nder	-329
▁tw	-330
ach	-331
iff	-332
ical	-333
▁right	-334
▁bu	-335
▁been	-336
▁ro	-337
▁said	-338
▁diff	-339
▁po	-340
ap	-341
de	-342
▁dis	-343
▁start	-344
▁something	-345
ia	-346
▁need	-347
▁2	-348
▁part	-349
ree	-350
fe	-351
▁over	-352
irst	-353
▁got	-354
▁she	-355
ath	-356
ory	-357
▁kind	-358
▁two	-359
own	-360
ry	-361
ss	-362
ign	-363
▁back	-364
olog	-365
ittle	-366
▁little	-367
▁call	-368
▁lo	-369
▁mu	-370
ire	-371
round	-372
ice	-373
ite	-374
▁spe	-375
ens	-376
orm	-377
▁first	-378
▁af	-379
ass	-380
▁ph	-381
▁those	-382
ple	-383
▁much	-384
ount	-385
wh	-386
▁differe	-387
ater	-388
ang	-389
▁lot	-390
▁cont	-391
ving	-392
▁des	-393
▁his	-394
▁pr	-395
▁imp	-396
ound	-397
▁♫	-398
sel	-399
ces	-400
ber	-401
ue	-402
▁life	-403
▁ac	-404
ish	-405
▁also	-406
ves	-407
ght	-408
ph	-409
be	-410
cent	-411
ody	-412
ult	-413
▁most	-414
way	-415
▁sy	-416
vel	-417
ick	-418
les	-419
rain	-420
▁bet	-421
▁under	-422
▁ad	-423
▁well	-424
▁bl	-425
▁res	-426
▁day	-427
co	-428
▁good	-429
▁take	-430
▁hum	-431
▁only	-432
able	-433
▁trans	-434
ated	-435
ms	-436
king	-437
ip	-438
ations	-439
▁show	-440
▁her	-441
▁even	-442
▁does	-443
▁down	-444
uct	-445
▁different	-446
▁sc	-447
int	-448
rough	-449
▁ide	-450
▁br	-451
▁put	-452
ood	-453
▁gr	-454
ict	-455
▁many	-456
red	-457
▁around	-458
▁bo	-459
ase	-460
▁real	-461
▁through	-462
▁let	-463
▁comm	-464
▁off	-465
▁use	-466
ep	-467
▁why	-468
ents	-469
ning	-470
▁gen	-471
▁ind	-472
▁inter	-473
▁being	-474
▁tell	-475
▁fl	-476
ance	-477
ark	-478
cess	-479
▁may	-480
▁tech	-481
als	-482
▁em	-483
ange	-484
form	-485
ade	-486
▁too	-487
ary	-488
▁sm	-489
▁car	-490
ject	-491
ak	-492
▁happen	-493
▁big	-494
▁come	-495
▁great	-496
▁thou	-497
ell	-498
▁techn	-499
▁doing	-500
▁inc	-501
▁same	-502
▁proble	-503
ric	-504
▁try	-505
ors	-506
▁sub	-507
▁three	-508
wn	-509
▁fact	-510
lect	-511
stem	-512
xt	-513
ful	-514
urn	-515
ys	-516
▁wr	-517
▁human	-518
you	-519
▁ra	-520
ically	-521
ved	-522
ting	-523
ower	-524
▁pers	-525
day	-526
igh	-527
▁gu	-528
▁count	-529
ible	-530
▁sur	-531
▁build	-532
ob	-533
▁tra	-534
ology	-535
▁fo	-536
▁find	-537
▁called	-538
ile	-539
▁child	-540
body	-541
▁system	-542
iver	-543
uc	-544
▁ear	-545
illion	-546
he	-547
▁app	-548
ren	-549
▁stud	-550
▁sim	-551
ons	-552
▁percent	-553
▁fa	-554
▁bas	-555
this	-556
▁design	-557
ics	-558
▁str	-559
other	-560
▁inv	-561
ord	-562
▁dec	-563
▁long	-564
▁made	-565
ious	-566
▁again	-567
fore	-568
ib	-569
ft	-570
self	-571
▁col	-572
ial	-573
ars	-574
▁exper	-575
▁rem	-576
ating	-577
ition	-578
▁lear	-579
▁quest	-580
ual	-581
▁should	-582
▁gl	-583
▁thank	-584
▁bel	-585
▁sci	-586
▁end	-587
▁after	-588
▁sch	-589
▁own	-590
ress	-591
▁ob	-592
erest	-593
▁import	-594
▁underst	-595
▁play	-596
▁inst	-597
▁cour	-598
ian	-599
▁brain	-600
▁pos	-601
▁interest	-602
▁mean	-603
▁thought	-604
cial	-605
ub	-606
000	-607
te	-608
▁cr	-609
▁person	-610
▁last	-611
▁creat	-612
nds	-613
▁wom	-614
ates	-615
▁today	-616
▁idea	-617
▁hel	-618
ty	-619
▁feel	-620
con	-621
▁change	-622
▁didn	-623
▁its	-624
▁ke	-625
cri	-626
ven	-627
▁la	-628
▁important	-629
ize	-630
▁him	-631
ities	-632
▁another	-633
▁ins	-634
▁high	-635
▁ask	-636
▁prod	-637
▁rel	-638
▁old	-639
▁turn	-640
▁power	-641
▁fu	-642
▁went	-643
,000	-644
▁exam	-645
ne	-646
▁understand	-647
▁story	-648
▁3	-649
▁mon	-650
▁art	-651
▁point	-652
▁bit	-653
▁give	-654
ough	-655
ise	-656
ac	-657
▁sort	-658
▁started	-659
gan	-660
▁course	-661
ool	-662
▁plan	-663
they	-664
▁cons	-665
▁never	-666
▁before	-667
ility	-668
kes	-669
▁better	-670
▁sol	-671
▁sl	-672
▁kid	-673
▁cent	-674
ular	-675
ert	-676
atter	-677
erg	-678
ution	-679
▁ter	-680
▁eng	-681
▁problem	-682
▁school	-683
▁help	-684
ted	-685
▁might	-686
well	-687
mo	-688
ists	-689
▁able	-690
▁imag	-691
▁found	-692
▁next	-693
ily	-694
▁belie	-695
▁water	-696
▁pol	-697
▁min	-698
gether	-699
▁mod	-700
▁hu	-701
▁ser	-702
velop	-703
▁few	-704
ense	-705
▁ago	-706
▁nat	-707
▁technology	-708
▁19	-709
▁together	-710
ix	-711
▁still	-712
▁ent	-713
ward	-714
▁fam	-715
▁med	-716
▁came	-717
▁comple	-718
▁place	-719
eric	-720
av	-721
▁each	-722
▁develop	-723
atch	-724
▁op	-725
▁four	-726
▁comput	-727
▁num	-728
▁ed	-729
▁ext	-730
pect	-731
▁10	-732
▁commun	-733
ave	-734
ween	-735
ram	-736
alth	-737
▁learn	-738
ines	-739
▁mus	-740
ather	-741
arch	-742
read	-743
ited	-744
▁stu	-745
▁used	-746
iss	-747
▁looking	-748
▁expl	-749
▁between	-750
▁rec	-751
ience	-752
▁light	-753
▁love	-754
ures	-755
▁cre	-756
▁small	-757
▁eff	-758
▁cell	-759
cript	-760
▁question	-761
ific	-762
lic	-763
tit	-764
▁20	-765
▁fin	-766
▁seco	-767
▁bi	-768
ized	-769
▁dat	-770
cept	-771
ness	-772
▁done	-773
▁whole	-774
▁grow	-775
▁el	-776
ger	-777
▁mom	-778
▁americ	-779
▁tri	-780
ably	-781
raph	-782
▁sk	-783
▁example	-784
ways	-785
▁doesn	-786
▁move	-787
ork	-788
▁read	-789
ered	-790
▁partic	-791
ied	-792
az	-793
▁far	-794
▁project	-795
iness	-796
no	-797
▁building	-798
▁war	-799
▁million	-800
▁gener	-801
▁care	-802
▁data	-803
▁afric	-804
ets	-805
▁beh	-806
▁lar	-807
▁rep	-808
▁children	-809
cy	-810
▁dr	-811
▁exp	-812
▁ca	-813
▁wanted	-814
ands	-815
▁maybe	-816
formation	-817
conom	-818
▁att	-819
▁univer	-820
▁word	-821
ps	-822
▁econom	-823
ative	-824
ross	-825
ote	-826
▁less	-827
ale	-828
▁space	-829
▁subtit	-830
ird	-831
▁transcript	-832
▁subtitles	-833
ug	-834
▁bus	-835
▁book	-836
▁women	-837
▁giv	-838
▁chang	-839
50	-840
ural	-841
▁pict	-842
oney	-843
▁working	-844
ute	-845
▁ok	-846
▁open	-847
▁reas	-848
▁hard	-849
▁hand	-850
▁ever	-851
▁poss	-852
▁trying	-853
selves	-854
▁always	-855
▁doll	-856
▁vis	-857
▁supp	-858
cer	-859
▁away	-860
▁five	-861
ract	-862
▁health	-863
▁pres	-864
▁elect	-865
▁cor	-866
ational	-867
▁ho	-868
▁organ	-869
▁form	-870
ah	-871
▁everything	-872
ope	-873
vers	-874
▁kids	-875
▁live	-876
▁inf	-877
ail	-878
▁using	-879
▁second	-880
▁believe	-881
gin	-882
▁cou	-883
ments	-884
there	-885
▁teach	-886
▁energ	-887
▁food	-888
▁country	-889
▁fut	-890
▁prob	-891
▁sing	-892
nect	-893
that	-894
▁home	-895
▁run	-896
▁anim	-897
▁thinking	-898
▁information	-899
ism	-900
▁4	-901
when	-902
▁fun	-903
▁money	-904
▁times	-905
ries	-906
▁wo	-907
▁met	-908
▁took	-909
▁future	-910
▁create	-911
▁spec	-912
▁energy	-913
▁ted	-914
▁mind	-915
▁earth	-916
▁left	-917
its	-918
▁gre	-919
▁mark	-920
▁means	-921
▁stuff	-922
▁z	-923
▁hal	-924
ks	-925
▁process	-926
▁char	-927
▁head	-928
led	-929
▁jo	-930
▁reg	-931
▁conf	-932
▁bring	-933
aut	-934
iew	-935
▁interesting	-936
▁pub	-937
▁making	-938
▁getting	-939
▁walk	-940
▁lead	-941
▁number	-942
▁sense	-943
▁quite	-944
hip	-945
▁cle	-946
▁contro	-947
ten	-948
▁frie	-949
ital	-950
▁acc	-951
omet	-952
▁air	-953
ouse	-954
▁intern	-955
▁enough	-956
▁says	-957
▁compan	-958
▁best	-959
▁comes	-960
ull	-961
▁prog	-962
▁probably	-963
ues	-964
vern	-965
▁cam	-966
▁month	-967
▁red	-968
sw	-969
▁pa	-970
▁gra	-971
▁become	-972
▁pat	-973
▁happened	-974
▁val	-975
▁product	-976
ention	-977
▁set	-978
▁grou	-979
ced	-980
ertain	-981
iting	-982
▁half	-983
▁talking	-984
▁science	-985
▁beaut	-986
▁govern	-987
▁cur	-988
ories	-989
▁side	-990
ograph	-991
▁hist	-992
man	-993
nce	-994
▁connect	-995
▁begin	-996
ock	-997
cus	-998
▁room	-999
▁dri	-1000
▁whe	-1001
vir	-1002
ont	-1003
▁pie	-1004
gest	-1005
lf	-1006
▁ty	-1007
▁answ	-1008
olution	-1009
▁pop	-1010
▁africa	-1011
▁dollars	-1012
▁glob	-1013
▁body	-1014
▁keep	-1015
▁pass	-1016
▁rese	-1017
▁without	-1018
ner	-1019
▁sign	-1020
▁coming	-1021
▁anything	-1022
aces	-1023
me	-1024
most	-1025
▁pret	-1026
▁add	-1027
▁phot	-1028
▁cap	-1029
ash	-1030
ient	-1031
▁bad	-1032
where	-1033
▁share	-1034
▁200	-1035
▁dist	-1036
▁top	-1037
▁social	-1038
▁else	-1039
▁pretty	-1040
▁ey	-1041
▁par	-1042
▁model	-1043
ever	-1044
what	-1045
▁phys	-1046
▁eas	-1047
viron	-1048
▁di	-1049
li	-1050
▁wee	-1051
▁moment	-1052
▁research	-1053
ts	-1054
▁sw	-1055
▁goes	-1056
▁scient	-1057
▁environ	-1058
ying	-1059
▁makes	-1060
▁hour	-1061
▁allow	-1062
▁fig	-1063
▁simple	-1064
▁bre	-1065
▁rob	-1066
ety	-1067
▁mid	-1068
der	-1069
▁job	-1070
▁educ	-1071
▁wonder	-1072
res	-1073
▁picture	-1074
▁youn	-1075
▁across	-1076
imate	-1077
▁global	-1078
▁reason	-1079
▁che	-1080
ices	-1081
▁cult	-1082
▁det	-1083
▁resp	-1084
▁stand	-1085
▁mar	-1086
▁mor	-1087
▁prot	-1088
▁seen	-1089
▁stop	-1090
▁happens	-1091
▁music	-1092
▁computer	-1093
ember	-1094
▁wa	-1095
▁such	-1096
▁mach	-1097
▁sound	-1098
▁business	-1099
▁six	-1100
▁told	-1101
▁lives	-1102
▁level	-1103
▁saw	-1104
▁living	-1105
str	-1106
▁planet	-1107
▁opp	-1108
▁vide	-1109
ots	-1110
▁matter	-1111
ince	-1112
▁mil	-1113
▁hope	-1114
▁basically	-1115
▁case	-1116
▁countries	-1117
▁particular	-1118
▁bro	-1119
▁city	-1120
▁face	-1121
▁effect	-1122
uring	-1123
▁prof	-1124
llow	-1125
▁ways	-1126
ken	-1127
▁sit	-1128
cause	-1129
▁soci	-1130
▁stre	-1131
▁amaz	-1132
▁lab	-1133
▁list	-1134
▁def	-1135
pr	-1136
▁having	-1137
▁ideas	-1138
▁problems	-1139
ings	-1140
ction	-1141
ortun	-1142
▁lang	-1143
▁watch	-1144
ization	-1145
▁thous	-1146
▁days	-1147
▁experience	-1148
ins	-1149
ided	-1150
▁complete	-1151
iter	-1152
▁fil	-1153
ank	-1154
for	-1155
ina	-1156
irl	-1157
br	-1158
▁inside	-1159
▁god	-1160
▁disco	-1161
▁later	-1162
oc	-1163
▁vir	-1164
because	-1165
▁both	-1166
▁environment	-1167
▁cost	-1168
▁.	-1169
▁langu	-1170
▁asked	-1171
▁mag	-1172
▁single	-1173
work	-1174
▁imagine	-1175
▁family	-1176
aps	-1177
▁dise	-1178
uth	-1179
ught	-1180
▁incred	-1181
▁states	-1182
lish	-1183
na	-1184
▁'	-1185
ott	-1186
▁self	-1187
▁young	-1188
io	-1189
▁dev	-1190
ilt	-1191
▁yet	-1192
▁certain	-1193
▁history	-1194
▁news	-1195
▁test	-1196
▁heart	-1197
less	-1198
▁billion	-1199
▁everybody	-1200
thers	-1201
▁dire	-1202
▁looks	-1203
▁age	-1204
▁leg	-1205
▁nothing	-1206
▁guy	-1207
▁ste	-1208
uce	-1209
thes	-1210
▁once	-1211
ering	-1212
▁contin	-1213
▁saying	-1214
dle	-1215
▁equ	-1216
itive	-1217
ready	-1218
ulation	-1219
▁state	-1220
▁almost	-1221
unch	-1222
▁ref	-1223
▁sure	-1224
▁loc	-1225
ality	-1226
uro	-1227
▁unt	-1228
▁control	-1229
imes	-1230
▁suc	-1231
▁within	-1232
▁beautif	-1233
▁ge	-1234
▁pain	-1235
▁treat	-1236
▁hear	-1237
▁wrong	-1238
▁cells	-1239
▁sou	-1240
▁public	-1241
med	-1242
▁remember	-1243
▁sec	-1244
▁rest	-1245
▁exc	-1246
ants	-1247
▁nature	-1248
▁polit	-1249
▁class	-1250
ury	-1251
▁fore	-1252
▁video	-1253
▁figure	-1254
▁already	-1255
ior	-1256
not	-1257
▁men	-1258
▁cancer	-1259
ivid	-1260
arent	-1261
▁possible	-1262
cle	-1263
ling	-1264
▁cond	-1265
▁true	-1266
▁net	-1267
▁free	-1268
▁girl	-1269
▁while	-1270
▁engine	-1271
▁amazing	-1272
▁oce	-1273
▁pri	-1274
▁looked	-1275
▁yes	-1276
▁tre	-1277
orn	-1278
▁kill	-1279
▁large	-1280
▁exact	-1281
ivity	-1282
allen	-1283
▁mater	-1284
▁cra	-1285
▁answer	-1286
▁mem	-1287
▁whether	-1288
rop	-1289
row	-1290
▁beautiful	-1291
osed	-1292
aster	-1293
▁oh	-1294
▁works	-1295
ield	-1296
▁line	-1297
▁must	-1298
▁..	-1299
▁heard	-1300
▁ass	-1301
ages	-1302
▁built	-1303
▁dra	-1304
▁market	-1305
▁green	-1306
▁community	-1307
ware	-1308
▁adv	-1309
▁law	-1310
▁group	-1311
▁couple	-1312
to	-1313
ases	-1314
land	-1315
▁species	-1316
side	-1317
▁isn	-1318
▁full	-1319
▁land	-1320
▁universe	-1321
▁india	-1322
▁months	-1323
ired	-1324
▁often	-1325
▁30	-1326
▁cal	-1327
ately	-1328
vious	-1329
▁50	-1330
▁arch	-1331
▁piece	-1332
ef	-1333
▁abs	-1334
ier	-1335
utes	-1336
▁nor	-1337
ndred	-1338
▁experim	-1339
eah	-1340
uck	-1341
▁challen	-1342
ator	-1343
▁web	-1344
▁front	-1345
▁aff	-1346
oss	-1347
▁mic	-1348
▁united	-1349
▁hundred	-1350
▁house	-1351
ane	-1352
▁aud	-1353
oy	-1354
new	-1355
▁middle	-1356
▁100	-1357
ush	-1358
here	-1359
▁iss	-1360
▁order	-1361
ead	-1362
▁rev	-1363
ometimes	-1364
▁individ	-1365
▁language	-1366
▁somebody	-1367
▁inno	-1368
▁someone	-1369
▁tool	-1370
▁follow	-1371
atic	-1372
▁view	-1373
▁pay	-1374
▁quick	-1375
▁until	-1376
▁government	-1377
▁places	-1378
get	-1379
▁av	-1380
nding	-1381
▁wind	-1382
▁third	-1383
▁stories	-1384
ron	-1385
▁oil	-1386
▁ret	-1387
den	-1388
▁result	-1389
▁internet	-1390
acter	-1391
▁har	-1392
▁night	-1393
▁education	-1394
air	-1395
▁words	-1396
▁game	-1397
▁past	-1398
▁entire	-1399
▁myself	-1400
▁taking	-1401
line	-1402
▁fly	-1403
ians	-1404
ape	-1405
▁ben	-1406
▁9	-1407
ats	-1408
▁object	-1409
▁sun	-1410
▁incre	-1411
▁hy	-1412
▁completely	-1413
▁students	-1414
▁indust	-1415
▁wasn	-1416
▁train	-1417
▁woman	-1418
▁itself	-1419
▁kinds	-1420
▁complex	-1421
ime	-1422
▁mother	-1423
▁exactly	-1424
ames	-1425
bers	-1426
ental	-1427
▁name	-1428
ional	-1429
▁happening	-1430
tern	-1431
▁deal	-1432
▁fish	-1433
▁behav	-1434
▁bab	-1435
▁gets	-1436
oice	-1437
▁minutes	-1438
▁decided	-1439
ters	-1440
my	-1441
▁since	-1442
▁mass	-1443
▁success	-1444
urs	-1445
▁math	-1446
etic	-1447
▁ris	-1448
▁huge	-1449
omes	-1450
▁company	-1451
ined	-1452
vation	-1453
ision	-1454
▁okay	-1455
▁though	-1456
▁disease	-1457
▁close	-1458
▁turns	-1459
▁ve	-1460
▁rad	-1461
ream	-1462
▁meas	-1463
▁struct	-1464
▁ourselves	-1465
▁focus	-1466
▁dep	-1467
▁guys	-1468
▁rather	-1469
how	-1470
▁ant	-1471
▁da	-1472
▁ocean	-1473
ok	-1474
▁happy	-1475
▁sometimes	-1476
▁coll	-1477
▁meet	-1478
▁along	-1479
▁study	-1480
sy	-1481
ien	-1482
▁dem	-1483
▁bott	-1484
▁ones	-1485
▁became	-1486
cc	-1487
▁deep	-1488
▁shows	-1489
▁yeah	-1490
ond	-1491
▁society	-1492
▁var	-1493
ogn	-1494
▁won	-1495
▁micro	-1496
▁mot	-1497
itting	-1498
▁century	-1499
face	-1500
ming	-1501
▁america	-1502
▁friends	-1503
▁mess	-1504
▁learned	-1505
▁black	-1506
▁seven	-1507
▁themselves	-1508
ared	-1509
▁ple	-1510
let	-1511
wards	-1512
ability	-1513
▁cir	-1514
▁animals	-1515
▁univers	-1516
▁everyone	-1517
▁present	-1518
▁dig	-1519
▁pick	-1520
▁mill	-1521
▁hold	-1522
▁natural	-1523
▁listen	-1524
ibly	-1525
▁explain	-1526
▁lots	-1527
▁liter	-1528
▁created	-1529
▁program	-1530
istic	-1531
▁pred	-1532
▁step	-1533
olved	-1534
▁oper	-1535
▁ele	-1536
▁fund	-1537
▁miss	-1538
▁least	-1539
▁invest	-1540
▁cut	-1541
▁questions	-1542
▁hours	-1543
▁couldn	-1544
▁opportun	-1545
ident	-1546
▁american	-1547
haps	-1548
ster	-1549
▁id	-1550
cing	-1551
icult	-1552
▁knew	-1553
▁machine	-1554
▁learning	-1555
lud	-1556
ples	-1557
▁early	-1558
▁amount	-1559
ribut	-1560
▁prov	-1561
▁expect	-1562
▁super	-1563
▁photograph	-1564
att	-1565
▁er	-1566
▁squ	-1567
▁collect	-1568
▁clear	-1569
▁against	-1570
▁based	-1571
▁gave	-1572
▁sens	-1573
▁wonderful	-1574
▁15	-1575
▁direct	-1576
▁field	-1577
▁moving	-1578
▁worked	-1579
ature	-1580
▁area	-1581
▁norm	-1582
▁parent	-1583
cul	-1584
▁relations	-1585
ives	-1586
▁es	-1587
▁pot	-1588
▁technolog	-1589
ones	-1590
▁vi	-1591
▁fre	-1592
▁thousands	-1593
astic	-1594
▁systems	-1595
▁death	-1596
▁chr	-1597
▁extra	-1598
▁takes	-1599
vered	-1600
▁patter	-1601
▁speak	-1602
▁difference	-1603
ern	-1604
▁bar	-1605
▁team	-1606
▁appro	-1607
▁china	-1608
▁5	-1609
▁outside	-1610
▁pattern	-1611
▁difficult	-1612
ium	-1613
▁short	-1614
by	-1615
▁sym	-1616
▁scale	-1617
▁perhaps	-1618
of	-1619
ged	-1620
▁tem	-1621
▁sug	-1622
▁taken	-1623
iqu	-1624
▁behavior	-1625
▁interact	-1626
ider	-1627
▁blue	-1628
▁colle	-1629
▁network	-1630
▁beginning	-1631
ral	-1632
▁chem	-1633
▁demo	-1634
▁wall	-1635
▁instead	-1636
▁protect	-1637
▁low	-1638
▁non	-1639
▁jour	-1640
▁rich	-1641
ients	-1642
▁powerful	-1643
pend	-1644
itect	-1645
▁drug	-1646
▁others	-1647
▁euro	-1648
ither	-1649
▁eight	-1650
▁recent	-1651
▁architect	-1652
ides	-1653
ination	-1654
▁typ	-1655
▁opt	-1656
▁terms	-1657
▁center	-1658
▁sum	-1659
▁foot	-1660
▁record	-1661
▁perform	-1662
ially	-1663
fect	-1664
▁obvious	-1665
sych	-1666
▁eyes	-1667
inary	-1668
▁york	-1669
▁del	-1670
olute	-1671
▁...	-1672
▁psych	-1673
▁size	-1674
▁leave	-1675
▁ill	-1676
aring	-1677
▁fail	-1678
▁12	-1679
ully	-1680
▁aut	-1681
▁grand	-1682
▁whatever	-1683
▁hands	-1684
▁absolute	-1685
▁relationship	-1686
▁lim	-1687
▁maj	-1688
ising	-1689
▁seeing	-1690
ential	-1691
▁break	-1692
▁parts	-1693
▁instit	-1694
ump	-1695
▁inde	-1696
▁sour	-1697
▁exist	-1698
▁needs	-1699
▁consum	-1700
▁behind	-1701
▁film	-1702
verage	-1703
ake	-1704
▁fall	-1705
itions	-1706
▁culture	-1707
▁image	-1708
▁population	-1709
▁evolution	-1710
▁buy	-1711
▁yourself	-1712
▁sea	-1713
▁common	-1714
▁turned	-1715
▁communic	-1716
xy	-1717
▁occ	-1718
itch	-1719
▁easy	-1720
▁surpr	-1721
ret	-1722
▁democ	-1723
▁media	-1724
▁finally	-1725
▁perfect	-1726
bo	-1727
▁extre	-1728
▁tot	-1729
▁trad	-1730
▁vers	-1731
▁major	-1732
▁support	-1733
po	-1734
gen	-1735
pped	-1736
▁friend	-1737
utions	-1738
▁given	-1739
▁cop	-1740
▁serv	-1741
▁changed	-1742
rod	-1743
▁personal	-1744
▁audience	-1745
ror	-1746
▁cy	-1747
▁week	-1748
ges	-1749
▁emot	-1750
▁local	-1751
▁robot	-1752
▁cannot	-1753
▁europe	-1754
▁reach	-1755
▁eat	-1756
▁pen	-1757
▁south	-1758
▁during	-1759
up	-1760
ented	-1761
▁doct	-1762
▁feet	-1763
▁longer	-1764
▁insp	-1765
▁access	-1766
▁ground	-1767
▁orig	-1768
▁sent	-1769
▁interested	-1770
ledge	-1771
ler	-1772
▁gone	-1773
▁paper	-1774
mer	-1775
aking	-1776
ule	-1777
▁ident	-1778
▁known	-1779
▁pract	-1780
▁national	-1781
▁dark	-1782
▁force	-1783
▁impro	-1784
ze	-1785
▁40	-1786
▁civ	-1787
▁ess	-1788
ero	-1789
pid	-1790
▁press	-1791
▁quickly	-1792
ply	-1793
▁cool	-1794
▁resour	-1795
▁sud	-1796
▁situ	-1797
▁tried	-1798
▁white	-1799
▁event	-1800
▁phone	-1801
▁emb	-1802
▁win	-1803
▁repres	-1804
cl	-1805
▁conv	-1806
▁began	-1807
▁ice	-1808
▁sil	-1809
fully	-1810
▁father	-1811
▁humans	-1812
▁famil	-1813
▁incredible	-1814
ney	-1815
cious	-1816
▁surv	-1817
▁ability	-1818
▁surface	-1819
app	-1820
elt	-1821
ouch	-1822
▁spend	-1823
▁needed	-1824
▁simply	-1825
▁measure	-1826
▁special	-1827
▁economic	-1828
▁feed	-1829
rought	-1830
els	-1831
ruct	-1832
these	-1833
▁stay	-1834
idence	-1835
she	-1836
ibility	-1837
ging	-1838
▁arg	-1839
ills	-1840
▁includ	-1841
▁nice	-1842
ids	-1843
port	-1844
▁electric	-1845
▁parents	-1846
ode	-1847
▁ur	-1848
▁mult	-1849
▁rock	-1850
▁vol	-1851
▁slow	-1852
▁realized	-1853
af	-1854
▁recogn	-1855
▁street	-1856
ilar	-1857
▁mov	-1858
▁pur	-1859
▁dream	-1860
▁sitting	-1861
▁draw	-1862
▁blood	-1863
▁serious	-1864
ison	-1865
▁mole	-1866
▁poor	-1867
▁dest	-1868
▁fast	-1869
▁prin	-1870
▁experiment	-1871
▁sat	-1872
▁caus	-1873
▁pull	-1874
pa	-1875
▁dim	-1876
izing	-1877
▁bottom	-1878
▁predict	-1879
▁knowledge	-1880
▁economy	-1881
com	-1882
▁soft	-1883
bs	-1884
▁spent	-1885
ton	-1886
▁lost	-1887
▁value	-1888
▁compass	-1889
▁growing	-1890
▁deg	-1891
▁growth	-1892
▁ce	-1893
▁civil	-1894
▁write	-1895
▁either	-1896
▁extreme	-1897
▁obs	-1898
ators	-1899
▁structure	-1900
▁opportunity	-1901
▁ap	-1902
▁bur	-1903
▁areas	-1904
▁cities	-1905
iny	-1906
▁felt	-1907
▁viol	-1908
room	-1909
then	-1910
▁hor	-1911
▁key	-1912
▁stage	-1913
▁travel	-1914
▁reality	-1915
▁approach	-1916
▁mal	-1917
▁map	-1918
▁dead	-1919
▁tele	-1920
▁vill	-1921
▁strong	-1922
▁forward	-1923
ru	-1924
▁flow	-1925
▁repl	-1926
▁respons	-1927
▁camer	-1928
▁changes	-1929
▁morning	-1930
▁technologies	-1931
▁box	-1932
▁profess	-1933
▁ir	-1934
▁sho	-1935
ological	-1936
ains	-1937
▁dna	-1938
▁gal	-1939
▁color	-1940
▁fight	-1941
▁companies	-1942
ny	-1943
▁circ	-1944
▁requ	-1945
▁stat	-1946
▁touch	-1947
▁brought	-1948
▁fire	-1949
gs	-1950
rent	-1951
▁die	-1952
▁animal	-1953
▁modern	-1954
osp	-1955
▁weeks	-1956
▁starting	-1957
ised	-1958
▁wouldn	-1959
▁climate	-1960
▁near	-1961
▁scre	-1962
▁sudden	-1963
▁feeling	-1964
ony	-1965
ances	-1966
ials	-1967
▁hot	-1968
▁images	-1969
▁compassion	-1970
▁anal	-1971
▁mount	-1972
▁tools	-1973
▁gives	-1974
arr	-1975
hood	-1976
▁books	-1977
▁theory	-1978
▁revolution	-1979
ument	-1980
▁text	-1981
▁worth	-1982
ression	-1983
ards	-1984
▁absolutely	-1985
▁guess	-1986
▁spread	-1987
▁developed	-1988
▁individual	-1989
▁medic	-1990
▁average	-1991
▁scientists	-1992
▁tur	-1993
ivers	-1994
▁main	-1995
par	-1996
▁rul	-1997
▁auth	-1998
▁phil	-1999
▁type	-2000
ife	-2001
old	-2002
uced	-2003
▁development	-2004
▁eye	-2005
▁hosp	-2006
cially	-2007
▁wrote	-2008
▁material	-2009
▁political	-2010
oph	-2011
▁sal	-2012
▁sex	-2013
▁sell	-2014
▁visual	-2015
▁playing	-2016
▁understanding	-2017
zy	-2018
▁enc	-2019
ively	-2020
▁wish	-2021
▁born	-2022
▁comb	-2023
▁impact	-2024
▁concept	-2025
▁challenge	-2026
▁crit	-2027
▁post	-2028
▁miles	-2029
▁shape	-2030
entially	-2031
▁suggest	-2032
▁song	-2033
▁north	-2034
▁relig	-2035
▁anyone	-2036
▁giving	-2037
bor	-2038
bon	-2039
ption	-2040
▁ball	-2041
▁peri	-2042
▁developing	-2043
▁dan	-2044
ustain	-2045
▁compet	-2046
lt	-2047
▁dou	-2048
▁est	-2049
▁const	-2050
▁leaders	-2051
▁physical	-2052
▁literally	-2053
▁ach	-2054
ellig	-2055
▁fear	-2056
▁term	-2057
▁mathem	-2058
ned	-2059
▁fav	-2060
▁path	-2061
▁risk	-2062
▁road	-2063
▁track	-2064
erm	-2065
ucle	-2066
▁bill	-2067
erence	-2068
▁realize	-2069
▁running	-2070
▁english	-2071
▁baby	-2072
▁poll	-2073
▁priv	-2074
▁sold	-2075
▁attention	-2076
▁ec	-2077
inal	-2078
▁affect	-2079
▁similar	-2080
▁intellig	-2081
▁avail	-2082
lu	-2083
ove	-2084
▁flo	-2085
▁dimens	-2086
▁speed	-2087
▁innovation	-2088
▁seems	-2089
▁nobody	-2090
▁general	-2091
▁movement	-2092
▁patients	-2093
▁patient	-2094
▁discovered	-2095
▁eg	-2096
urity	-2097
▁rele	-2098
ensive	-2099
▁millions	-2100
ex	-2101
▁div	-2102
▁favor	-2103
▁knows	-2104
▁descri	-2105
▁computers	-2106
ik	-2107
more	-2108
▁prom	-2109
▁meaning	-2110
▁prev	-2111
▁talked	-2112
ung	-2113
▁je	-2114
▁lay	-2115
▁cars	-2116
struct	-2117
▁sustain	-2118
ences	-2119
▁save	-2120
▁nucle	-2121
▁hundreds	-2122
amed	-2123
▁bal	-2124
inese	-2125
▁bird	-2126
▁fur	-2127
▁benef	-2128
▁smart	-2129
▁industry	-2130
ows	-2131
iant	-2132
▁truth	-2133
▁tradition	-2134
ored	-2135
ried	-2136
anger	-2137
▁peace	-2138
▁period	-2139
▁produce	-2140
asc	-2141
▁din	-2142
▁polic	-2143
▁showed	-2144
▁numbers	-2145
▁incredibly	-2146
por	-2147
ified	-2148
▁changing	-2149
yn	-2150
▁current	-2151
acy	-2152
▁source	-2153
▁anybody	-2154
▁neg	-2155
▁solar	-2156
▁fundam	-2157
▁creating	-2158
ency	-2159
▁emp	-2160
▁neigh	-2161
phere	-2162
▁device	-2163
▁normal	-2164
▁proper	-2165
▁chinese	-2166
▁generation	-2167
▁soon	-2168
▁telling	-2169
▁except	-2170
▁available	-2171
▁happiness	-2172
unt	-2173
▁alone	-2174
▁emerg	-2175
▁issue	-2176
▁11	-2177
▁hon	-2178
▁prop	-2179
▁virus	-2180
▁solution	-2181
ee	-2182
ift	-2183
ley	-2184
xic	-2185
racy	-2186
uals	-2187
istan	-2188
▁rate	-2189
▁medical	-2190
▁led	-2191
▁25	-2192
▁grad	-2193
▁clean	-2194
▁carbon	-2195
▁pictures	-2196
▁security	-2197
ique	-2198
pecially	-2199
hn	-2200
head	-2201
ploy	-2202
▁haven	-2203
ilities	-2204
▁designed	-2205
ateg	-2206
ites	-2207
▁push	-2208
ped	-2209
▁fair	-2210
▁rules	-2211
▁table	-2212
▁reasons	-2213
▁dom	-2214
▁zero	-2215
▁recently	-2216
▁tas	-2217
▁achie	-2218
▁drive	-2219
▁girls	-2220
▁transform	-2221
aged	-2222
▁aren	-2223
▁link	-2224
▁seem	-2225
▁tiny	-2226
▁199	-2227
▁situation	-2228
sh	-2229
like	-2230
gr	-2231
▁sle	-2232
▁defin	-2233
▁becomes	-2234
▁putting	-2235
ban	-2236
▁bra	-2237
asing	-2238
▁suff	-2239
▁involved	-2240
▁bacter	-2241
aw	-2242
bed	-2243
▁ult	-2244
oring	-2245
▁lived	-2246
▁action	-2247
▁resources	-2248
▁bed	-2249
▁stra	-2250
▁ver	-2251
▁goog	-2252
▁west	-2253
▁react	-2254
▁bigger	-2255
▁vision	-2256
▁university	-2257
▁east	-2258
▁among	-2259
▁games	-2260
▁office	-2261
▁subject	-2262
▁eth	-2263
▁gas	-2264
ister	-2265
light	-2266
▁port	-2267
▁star	-2268
▁solve	-2269
▁character	-2270
▁especially	-2271
erv	-2272
▁pu	-2273
ival	-2274
▁effic	-2275
▁please	-2276
▁extraord	-2277
chan	-2278
yond	-2279
▁boy	-2280
▁basic	-2281
▁schools	-2282
▁rid	-2283
▁attack	-2284
▁digital	-2285
▁towards	-2286
▁writing	-2287
▁projects	-2288
▁software	-2289
▁obviously	-2290
bit	-2291
ased	-2292
▁screen	-2293
ma	-2294
mers	-2295
▁hiv	-2296
▁lif	-2297
▁clos	-2298
▁trust	-2299
▁beyond	-2300
▁groups	-2301
▁tells	-2302
▁voice	-2303
▁scientific	-2304
▁sever	-2305
▁online	-2306
▁princi	-2307
▁function	-2308
▁materials	-2309
abor	-2310
ished	-2311
▁plant	-2312
▁minute	-2313
ude	-2314
▁hit	-2315
pping	-2316
▁vari	-2317
▁graph	-2318
▁stick	-2319
une	-2320
lict	-2321
▁neur	-2322
▁message	-2323
▁syn	-2324
▁nine	-2325
▁virt	-2326
▁breat	-2327
▁wants	-2328
ca	-2329
▁aw	-2330
ades	-2331
▁unf	-2332
▁asking	-2333
▁examples	-2334
amp	-2335
▁flu	-2336
usion	-2337
▁park	-2338
▁passion	-2339
▁quality	-2340
▁bir	-2341
arily	-2342
▁rain	-2343
▁sequ	-2344
▁skin	-2345
▁block	-2346
▁chance	-2347
▁issues	-2348
▁necess	-2349
ery	-2350
oms	-2351
▁brit	-2352
▁died	-2353
▁publish	-2354
▁several	-2355
▁showing	-2356
go	-2357
oud	-2358
▁detail	-2359
▁nuclear	-2360
ese	-2361
itary	-2362
▁google	-2363
ously	-2364
right	-2365
▁positive	-2366
ify	-2367
▁lad	-2368
▁report	-2369
▁adm	-2370
▁bom	-2371
▁john	-2372
▁prim	-2373
▁interv	-2374
▁cross	-2375
▁pack	-2376
▁send	-2377
▁starts	-2378
▁chemical	-2379
▁evidence	-2380
▁certainly	-2381
ai	-2382
▁danger	-2383
▁mechan	-2384
▁square	-2385
▁convers	-2386
▁thousand	-2387
book	-2388
▁arm	-2389
▁mob	-2390
▁tend	-2391
▁capital	-2392
▁village	-2393
▁discover	-2394
omen	-2395
▁college	-2396
▁journey	-2397
▁experien	-2398
▁bud	-2399
▁door	-2400
▁conscious	-2401
▁log	-2402
▁sky	-2403
▁spir	-2404
▁plants	-2405
▁further	-2406
▁particularly	-2407
just	-2408
▁fing	-2409
▁search	-2410
▁teacher	-2411
inst	-2412
▁sand	-2413
▁moved	-2414
▁student	-2415
▁check	-2416
▁movie	-2417
▁choice	-2418
▁walking	-2419
▁hospital	-2420
▁potential	-2421
▁everywhere	-2422
ext	-2423
cuss	-2424
▁son	-2425
▁totally	-2426
▁exciting	-2427
▁separ	-2428
▁conflict	-2429
ugg	-2430
▁onto	-2431
▁page	-2432
bes	-2433
medi	-2434
every	-2435
▁inte	-2436
ground	-2437
▁teachers	-2438
uly	-2439
▁vac	-2440
rible	-2441
come	-2442
▁safe	-2443
▁transl	-2444
iar	-2445
fort	-2446
▁fant	-2447
▁moral	-2448
▁notice	-2449
gn	-2450
ann	-2451
▁isl	-2452
ressed	-2453
▁birth	-2454
osphere	-2455
put	-2456
▁gala	-2457
▁bunch	-2458
▁carry	-2459
▁extraordinary	-2460
aur	-2461
umb	-2462
icle	-2463
rest	-2464
some	-2465
▁fem	-2466
oices	-2467
rast	-2468
▁wait	-2469
▁ready	-2470
▁store	-2471
▁waste	-2472
▁camera	-2473
▁likely	-2474
▁complic	-2475
▁extremely	-2476
ops	-2477
▁capt	-2478
▁activ	-2479
▁biggest	-2480
▁supposed	-2481
uit	-2482
▁dam	-2483
▁tom	-2484
▁choo	-2485
▁diag	-2486
▁wash	-2487
▁aware	-2488
▁sounds	-2489
▁context	-2490
▁results	-2491
▁clin	-2492
▁fill	-2493
▁encou	-2494
▁democracy	-2495
▁fix	-2496
▁objects	-2497
apan	-2498
▁dro	-2499
itten	-2500
▁activity	-2501
▁creative	-2502
idge	-2503
▁tar	-2504
▁meth	-2505
iction	-2506
▁named	-2507
▁perspect	-2508
▁represent	-2509
ene	-2510
▁ang	-2511
▁cat	-2512
▁cris	-2513
▁lose	-2514
▁magn	-2515
▁introd	-2516
▁series	-2517
▁cook	-2518
▁coun	-2519
▁mine	-2520
▁temper	-2521
▁x	-2522
isms	-2523
ring	-2524
▁bri	-2525
▁imm	-2526
▁lea	-2527
▁code	-2528
▁jobs	-2529
▁imposs	-2530
▁remark	-2531
▁african	-2532
▁site	-2533
isions	-2534
▁earli	-2535
▁japan	-2536
▁account	-2537
▁collabor	-2538
▁connected	-2539
▁bank	-2540
▁ended	-2541
▁labor	-2542
ims	-2543
antly	-2544
▁stri	-2545
▁magic	-2546
▁print	-2547
▁threat	-2548
▁continu	-2549
▁mathemat	-2550
▁buildings	-2551
sc	-2552
phone	-2553
▁card	-2554
▁cause	-2555
▁author	-2556
▁watching	-2557
iger	-2558
ners	-2559
▁sam	-2560
▁mars	-2561
▁suddenly	-2562
akes	-2563
oming	-2564
▁grew	-2565
▁apart	-2566
▁influ	-2567
▁sleep	-2568
▁sorts	-2569
▁medicine	-2570
▁signific	-2571
▁eventually	-2572
▁organization	-2573
▁international	-2574
mend	-2575
rial	-2576
▁oxy	-2577
▁goal	-2578
▁disapp	-2579
▁allowed	-2580
▁plastic	-2581
verty	-2582
▁clim	-2583
▁genes	-2584
gth	-2585
ips	-2586
oid	-2587
ulf	-2588
eter	-2589
▁pal	-2590
▁gold	-2591
▁drugs	-2592
▁doctor	-2593
▁faster	-2594
▁consider	-2595
▁san	-2596
▁meant	-2597
▁trees	-2598
▁appear	-2599
▁immedi	-2600
▁military	-2601
▁particip	-2602
▁somewhere	-2603
▁impossible	-2604
▁electricity	-2605
▁concer	-2606
▁models	-2607
▁finding	-2608
▁poverty	-2609
▁products	-2610
▁sus	-2611
▁mist	-2612
▁brains	-2613
▁higher	-2614
▁biology	-2615
▁content	-2616
▁essentially	-2617
▁individuals	-2618
▁architecture	-2619
met	-2620
▁detect	-2621
▁infect	-2622
▁robots	-2623
▁largest	-2624
▁favorite	-2625
▁progress	-2626
fer	-2627
▁cit	-2628
▁cold	-2629
▁fine	-2630
▁king	-2631
▁rece	-2632
▁webs	-2633
▁wife	-2634
▁adult	-2635
▁trick	-2636
▁explore	-2637
▁distribut	-2638
cise	-2639
emic	-2640
▁prote	-2641
▁spect	-2642
▁talks	-2643
▁construct	-2644
▁bou	-2645
▁den	-2646
▁hop	-2647
▁los	-2648
cient	-2649
▁fasc	-2650
▁taught	-2651
▁14	-2652
▁mis	-2653
▁pan	-2654
▁role	-2655
▁somehow	-2656
▁studies	-2657
▁engineering	-2658
▁dav	-2659
▁shown	-2660
▁points	-2661
▁position	-2662
▁enj	-2663
▁swe	-2664
▁fram	-2665
▁late	-2666
▁corre	-2667
▁multi	-2668
▁killed	-2669
▁discuss	-2670
▁bacteria	-2671
▁neighbor	-2672
▁complicated	-2673
zz	-2674
ires	-2675
▁phen	-2676
▁purp	-2677
▁town	-2678
▁tree	-2679
▁wild	-2680
▁crazy	-2681
▁price	-2682
inct	-2683
plic	-2684
▁fle	-2685
▁muse	-2686
ission	-2687
ration	-2688
▁stars	-2689
▁secret	-2690
▁ann	-2691
▁above	-2692
▁molec	-2693
▁forest	-2694
▁pieces	-2695
▁machines	-2696
▁fundamental	-2697
apt	-2698
▁fuel	-2699
▁trou	-2700
▁upon	-2701
▁lands	-2702
▁minds	-2703
▁beauty	-2704
▁continue	-2705
▁president	-2706
▁ban	-2707
odies	-2708
ulate	-2709
▁forms	-2710
▁glass	-2711
▁version	-2712
rad	-2713
onse	-2714
▁dad	-2715
▁doc	-2716
▁ten	-2717
ounds	-2718
▁rand	-2719
estern	-2720
vision	-2721
▁service	-2722
▁standing	-2723
ube	-2724
▁tv	-2725
▁afgh	-2726
▁conc	-2727
▁enorm	-2728
▁innov	-2729
▁crisis	-2730
▁larger	-2731
▁launch	-2732
▁policy	-2733
▁central	-2734
▁usually	-2735
▁conditions	-2736
oh	-2737
ama	-2738
rom	-2739
▁deb	-2740
▁pig	-2741
atory	-2742
▁cart	-2743
▁truly	-2744
▁accept	-2745
▁calcul	-2746
▁indeed	-2747
▁excited	-2748
▁smaller	-2749
erve	-2750
ived	-2751
▁fold	-2752
▁assum	-2753
▁perspective	-2754
nal	-2755
▁luck	-2756
▁mental	-2757
▁museum	-2758
▁strange	-2759
▁response	-2760
▁successful	-2761
lo	-2762
rep	-2763
rage	-2764
sect	-2765
▁roll	-2766
▁lower	-2767
▁invent	-2768
▁decision	-2769
▁kil	-2770
▁citiz	-2771
▁phenomen	-2772
ortunately	-2773
▁treatment	-2774
back	-2775
▁ger	-2776
▁jud	-2777
▁forth	-2778
▁freed	-2779
inating	-2780
▁including	-2781
.,	-2782
do	-2783
mb	-2784
ils	-2785
▁aid	-2786
ining	-2787
▁cele	-2788
▁shap	-2789
▁lines	-2790
▁trade	-2791
▁christ	-2792
▁communities	-2793
cape	-2794
▁worse	-2795
▁terror	-2796
▁improve	-2797
▁physics	-2798
▁written	-2799
▁traditional	-2800
lly	-2801
▁alive	-2802
▁board	-2803
▁finan	-2804
▁throw	-2805
▁afghan	-2806
▁celebr	-2807
ana	-2808
rum	-2809
▁sn	-2810
nces	-2811
▁hey	-2812
▁actual	-2813
▁allows	-2814
▁saving	-2815
▁mention	-2816
▁western	-2817
▁anywhere	-2818
▁et	-2819
▁beings	-2820
▁genetic	-2821
▁reading	-2822
▁families	-2823
▁surprising	-2824
rap	-2825
fact	-2826
rams	-2827
ables	-2828
▁rise	-2829
▁urban	-2830
▁effort	-2831
▁return	-2832
▁skills	-2833
with	-2834
istics	-2835
▁daught	-2836
▁dollar	-2837
▁thanks	-2838
▁himself	-2839
▁respect	-2840
▁humanity	-2841
▁straight	-2842
▁conference	-2843
rene	-2844
resh	-2845
sequ	-2846
▁hall	-2847
▁legs	-2848
▁chris	-2849
pendent	-2850
▁surger	-2851
▁dog	-2852
▁tit	-2853
▁specific	-2854
▁ultimate	-2855
▁fantastic	-2856
dom	-2857
ales	-2858
ches	-2859
okay	-2860
erson	-2861
▁cover	-2862
▁dance	-2863
ologist	-2864
▁anyway	-2865
▁determ	-2866
▁famous	-2867
▁contribut	-2868
ston	-2869
▁alg	-2870
▁gene	-2871
▁none	-2872
▁cases	-2873
▁healthy	-2874
▁listening	-2875
oke	-2876
▁hol	-2877
after	-2878
▁david	-2879
▁demon	-2880
▁range	-2881
▁achieve	-2882
▁strateg	-2883
▁painting	-2884
▁teaching	-2885
▁direction	-2886
▁solutions	-2887
any	-2888
▁od	-2889
▁rule	-2890
▁expensive	-2891
▁recognize	-2892
▁production	-2893
▁hero	-2894
▁choose	-2895
▁region	-2896
▁spirit	-2897
▁earlier	-2898
▁critical	-2899
▁increasing	-2900
amic	-2901
inated	-2902
▁optim	-2903
▁increase	-2904
▁21	-2905
▁uses	-2906
▁yell	-2907
▁greater	-2908
▁training	-2909
▁environmental	-2910
iet	-2911
men	-2912
▁hyd	-2913
▁mut	-2914
▁jump	-2915
▁kept	-2916
▁occur	-2917
▁anymore	-2918
▁waiting	-2919
▁controll	-2920
▁decisions	-2921
aly	-2922
iti	-2923
▁atm	-2924
▁dar	-2925
orrow	-2926
osoph	-2927
thern	-2928
▁liber	-2929
▁neuro	-2930
izations	-2931
ls	-2932
uss	-2933
soci	-2934
▁blog	-2935
▁shot	-2936
▁adapt	-2937
▁afford	-2938
▁engage	-2939
▁reflect	-2940
▁patterns	-2941
▁violence	-2942
▁performance	-2943
oon	-2944
▁sect	-2945
▁manage	-2946
▁driving	-2947
▁transport	-2948
cks	-2949
tend	-2950
▁ord	-2951
▁income	-2952
▁unique	-2953
iversity	-2954
▁seconds	-2955
▁mi	-2956
ndon	-2957
onom	-2958
iling	-2959
people	-2960
▁flying	-2961
▁colleag	-2962
▁demonstr	-2963
▁americans	-2964
▁dangerous	-2965
▁therefore	-2966
bel	-2967
imp	-2968
▁90	-2969
▁dyn	-2970
▁tun	-2971
ricult	-2972
▁blind	-2973
▁broad	-2974
▁freedom	-2975
▁following	-2976
▁industrial	-2977
▁ran	-2978
▁veh	-2979
▁vict	-2980
▁autom	-2981
▁slide	-2982
▁prison	-2983
▁remind	-2984
▁select	-2985
▁values	-2986
▁express	-2987
▁familiar	-2988
▁ara	-2989
▁lau	-2990
▁artist	-2991
▁various	-2992
▁agricult	-2993
▁becoming	-2994
▁electron	-2995
▁ut	-2996
▁bang	-2997
though	-2998
▁older	-2999
▁worry	-3000
aph	-3001
iced	-3002
ured	-3003
▁cry	-3004
aging	-3005
first	-3006
▁task	-3007
▁costs	-3008
reprene	-3009
▁commer	-3010
ologists	-3011
▁website	-3012
▁invented	-3013
▁throughout	-3014
▁temperature	-3015
▁conversation	-3016
bing	-3017
▁hur	-3018
▁lat	-3019
▁final	-3020
▁employ	-3021
▁slight	-3022
▁address	-3023
▁clearly	-3024
▁cultural	-3025
bol	-3026
unk	-3027
yle	-3028
wood	-3029
▁fort	-3030
▁heat	-3031
▁funny	-3032
▁weren	-3033
▁associ	-3034
▁philosoph	-3035
▁entreprene	-3036
▁remarkable	-3037
ha	-3038
ays	-3039
ucing	-3040
▁prep	-3041
▁forget	-3042
▁mobile	-3043
▁nation	-3044
▁rights	-3045
▁creativity	-3046
oty	-3047
▁ira	-3048
▁..."	-3049
▁arri	-3050
▁catch	-3051
▁match	-3052
▁shark	-3053
▁indian	-3054
atically	-3055
▁effects	-3056
▁mountain	-3057
▁television	-3058
gu	-3059
orry	-3060
rees	-3061
▁copy	-3062
▁harv	-3063
▁radio	-3064
▁london	-3065
▁walked	-3066
▁private	-3067
▁intelligence	-3068
vert	-3069
▁pow	-3070
▁sad	-3071
iring	-3072
▁enjoy	-3073
▁floor	-3074
▁breath	-3075
▁comfort	-3076
▁provide	-3077
▁enormous	-3078
anda	-3079
▁hair	-3080
▁drink	-3081
▁raise	-3082
ception	-3083
▁bodies	-3084
▁decade	-3085
▁method	-3086
▁immediately	-3087
▁institutions	-3088
▁ken	-3089
acity	-3090
▁hell	-3091
▁tiss	-3092
▁wire	-3093
▁types	-3094
▁whose	-3095
itation	-3096
▁weight	-3097
▁neurons	-3098
▁13	-3099
▁fac	-3100
▁hole	-3101
▁ahead	-3102
▁integr	-3103
▁levels	-3104
▁oxygen	-3105
▁consequ	-3106
▁massive	-3107
▁survive	-3108
▁although	-3109
▁politics	-3110
,"	-3111
0,	-3112
iles	-3113
▁insect	-3114
▁greatest	-3115
aries	-3116
▁gent	-3117
▁laws	-3118
▁displ	-3119
▁random	-3120
▁tal	-3121
▁desp	-3122
▁weap	-3123
▁desert	-3124
▁genome	-3125
▁evolved	-3126
▁sharing	-3127
ipp	-3128
▁etc	-3129
▁fit	-3130
▁tum	-3131
▁physic	-3132
▁meeting	-3133
▁purpose	-3134
▁willing	-3135
▁services	-3136
ceed	-3137
ping	-3138
▁nut	-3139
▁career	-3140
▁journal	-3141
▁understood	-3142
▁24	-3143
▁fat	-3144
attle	-3145
▁iraq	-3146
▁forces	-3147
▁island	-3148
▁inspired	-3149
▁relative	-3150
▁terrible	-3151
▁condition	-3152
amm	-3153
bert	-3154
▁radi	-3155
▁useful	-3156
▁speaking	-3157
▁interview	-3158
eth	-3159
iers	-3160
antic	-3161
▁sick	-3162
▁chair	-3163
▁motiv	-3164
▁strugg	-3165
▁tremend	-3166
▁practice	-3167
▁standard	-3168
▁effective	-3169
▁experiments	-3170
▁fra	-3171
▁wood	-3172
▁police	-3173
▁produced	-3174
▁afghanistan	-3175
itor	-3176
▁aids	-3177
▁fash	-3178
▁airpl	-3179
▁apply	-3180
rastruct	-3181
▁directly	-3182
▁instance	-3183
anc	-3184
▁ine	-3185
▁base	-3186
▁beat	-3187
▁wide	-3188
▁below	-3189
▁frame	-3190
▁hydro	-3191
▁river	-3192
▁histor	-3193
▁memory	-3194
▁supply	-3195
▁popular	-3196
▁profound	-3197
▁financial	-3198
rew	-3199
▁boys	-3200
▁moon	-3201
▁birds	-3202
▁causes	-3203
▁democr	-3204
▁destro	-3205
▁prevent	-3206
▁surgery	-3207
▁designers	-3208
▁connection	-3209
▁governments	-3210
▁infrastruct	-3211
hib	-3212
▁bul	-3213
▁ing	-3214
ained	-3215
ufact	-3216
▁scan	-3217
▁loved	-3218
▁original	-3219
▁500	-3220
▁cust	-3221
▁brill	-3222
▁dinos	-3223
▁quant	-3224
▁twice	-3225
▁babies	-3226
▁flight	-3227
▁wealth	-3228
▁atmosphere	-3229
key	-3230
▁fab	-3231
board	-3232
▁coff	-3233
▁crow	-3234
▁coast	-3235
▁yellow	-3236
▁fashion	-3237
▁citizens	-3238
▁diseases	-3239
▁manufact	-3240
▁pressure	-3241
▁sustainable	-3242
ancy	-3243
olve	-3244
water	-3245
▁core	-3246
▁cloud	-3247
▁sorry	-3248
▁mostly	-3249
▁summer	-3250
▁doctors	-3251
cles	-3252
aling	-3253
▁dram	-3254
▁bought	-3255
▁networks	-3256
▁possibly	-3257
▁mix	-3258
▁mos	-3259
▁pet	-3260
▁appl	-3261
▁plat	-3262
▁rough	-3263
▁decide	-3264
▁shared	-3265
ds	-3266
▁ign	-3267
rical	-3268
▁doub	-3269
▁ancient	-3270
▁organisms	-3271
▁scientist	-3272
arian	-3273
▁stem	-3274
▁tail	-3275
▁brand	-3276
▁active	-3277
▁played	-3278
▁switch	-3279
▁trouble	-3280
▁complexity	-3281
ky	-3282
▁thr	-3283
paign	-3284
▁band	-3285
▁narr	-3286
▁gradu	-3287
▁notion	-3288
ervation	-3289
▁workers	-3290
▁campaign	-3291
▁300	-3292
eties	-3293
▁race	-3294
▁scul	-3295
▁cheap	-3296
▁total	-3297
▁trial	-3298
▁compon	-3299
▁honest	-3300
▁photos	-3301
▁efficient	-3302
▁gh	-3303
▁mr	-3304
cond	-3305
empt	-3306
▁tor	-3307
▁wis	-3308
ornia	-3309
▁aust	-3310
▁harm	-3311
▁hous	-3312
ishing	-3313
▁basis	-3314
▁oppos	-3315
▁parad	-3316
▁shock	-3317
▁closer	-3318
▁expand	-3319
▁german	-3320
▁master	-3321
▁capacity	-3322
▁surround	-3323
orge	-3324
ustr	-3325
▁201	-3326
▁drop	-3327
▁mich	-3328
▁pleas	-3329
▁belief	-3330
▁breast	-3331
▁eating	-3332
▁related	-3333
▁significant	-3334
ec	-3335
win	-3336
ffic	-3337
▁clo	-3338
▁paid	-3339
▁tens	-3340
▁corner	-3341
▁bringing	-3342
iding	-3343
oting	-3344
rench	-3345
▁ecos	-3346
▁heav	-3347
▁offic	-3348
▁gotten	-3349
▁attract	-3350
▁religion	-3351
▁emotional	-3352
▁published	-3353
▁communication	-3354
▁infrastructure	-3355
load	-3356
wise	-3357
cules	-3358
▁iran	-3359
atives	-3360
▁calif	-3361
▁10,000	-3362
▁bridge	-3363
▁broken	-3364
▁symbol	-3365
▁window	-3366
▁answers	-3367
▁washing	-3368
▁challenges	-3369
used	-3370
▁mit	-3371
▁rom	-3372
ently	-3373
▁camp	-3374
▁coffee	-3375
▁helped	-3376
▁metaph	-3377
▁creates	-3378
▁degrees	-3379
▁slightly	-3380
ios	-3381
▁gar	-3382
▁lin	-3383
inate	-3384
▁loss	-3385
▁vacc	-3386
▁sculpt	-3387
▁biological	-3388
ami	-3389
ball	-3390
rael	-3391
▁mad	-3392
▁ske	-3393
▁arab	-3394
▁calls	-3395
▁frank	-3396
▁intel	-3397
▁magaz	-3398
▁party	-3399
▁artists	-3400
▁california	-3401
ray	-3402
▁ax	-3403
outh	-3404
anced	-3405
▁asse	-3406
▁lack	-3407
▁wheel	-3408
▁devices	-3409
▁streets	-3410
bb	-3411
mit	-3412
cked	-3413
otic	-3414
istry	-3415
itted	-3416
▁depe	-3417
▁swim	-3418
▁terr	-3419
▁tour	-3420
▁custom	-3421
▁gentle	-3422
▁planets	-3423
▁daughter	-3424
▁tremendous	-3425
arm	-3426
▁tax	-3427
▁vul	-3428
ystem	-3429
▁hang	-3430
▁libr	-3431
▁reve	-3432
uction	-3433
▁analy	-3434
▁email	-3435
▁laugh	-3436
▁rapid	-3437
▁smell	-3438
▁israel	-3439
▁choices	-3440
▁mission	-3441
▁nations	-3442
▁virtual	-3443
▁molecules	-3444
cies	-3445
ened	-3446
▁gard	-3447
▁seed	-3448
▁teen	-3449
▁vast	-3450
▁tough	-3451
▁altern	-3452
▁applic	-3453
▁deliver	-3454
▁helping	-3455
▁brilliant	-3456
▁ecosystem	-3457
▁neighborhood	-3458
5,	-3459
aria	-3460
▁hus	-3461
icles	-3462
▁mamm	-3463
▁paul	-3464
▁seas	-3465
▁shop	-3466
▁bread	-3467
▁batter	-3468
▁easily	-3469
▁background	-3470
▁responsibility	-3471
▁"♫	-3472
▁rot	-3473
gress	-3474
▁acad	-3475
▁musl	-3476
▁poet	-3477
▁crash	-3478
▁prize	-3479
▁visit	-3480
▁aspect	-3481
▁volunt	-3482
▁respond	-3483
▁restaur	-3484
▁programs	-3485
▁rh	-3486
▁hearing	-3487
▁foundation	-3488
aff	-3489
ford	-3490
ises	-3491
▁fro	-3492
▁hom	-3493
ement	-3494
▁burn	-3495
▁gall	-3496
▁chick	-3497
▁frequ	-3498
▁worst	-3499
ein	-3500
cell	-3501
even	-3502
▁gun	-3503
▁mort	-3504
▁dying	-3505
▁shift	-3506
▁myster	-3507
▁reduce	-3508
▁vulner	-3509
▁communicate	-3510
▁consciousness	-3511
can	-3512
▁joy	-3513
▁host	-3514
▁reco	-3515
▁spee	-3516
▁disord	-3517
▁lights	-3518
▁seemed	-3519
▁focused	-3520
▁markets	-3521
▁classroom	-3522
▁creatures	-3523
ox	-3524
▁join	-3525
▁mouse	-3526
▁mouth	-3527
▁charge	-3528
▁resist	-3529
▁foreign	-3530
▁stopped	-3531
▁designer	-3532
▁differences	-3533
▁imagination	-3534
zen	-3535
edia	-3536
▁que	-3537
arter	-3538
▁photo	-3539
▁decades	-3540
▁elements	-3541
▁partners	-3542
▁spending	-3543
▁dimensional	-3544
tle	-3545
aced	-3546
▁amb	-3547
▁cla	-3548
house	-3549
▁lapt	-3550
▁rare	-3551
▁enter	-3552
▁mexic	-3553
▁degree	-3554
▁tissue	-3555
▁noticed	-3556
▁turning	-3557
ification	-3558
ica	-3559
ander	-3560
celer	-3561
▁invis	-3562
ography	-3563
▁fairly	-3564
▁highly	-3565
▁correct	-3566
▁richard	-3567
▁studying	-3568
▁definition	-3569
▁cro	-3570
ening	-3571
▁cred	-3572
▁edge	-3573
▁shel	-3574
▁bound	-3575
▁demand	-3576
▁spaces	-3577
▁farmers	-3578
▁negative	-3579
▁diversity	-3580
▁commercial	-3581
izes	-3582
over	-3583
▁repe	-3584
▁feels	-3585
▁niger	-3586
▁stren	-3587
▁double	-3588
▁attempt	-3589
ief	-3590
ores	-3591
rupt	-3592
eless	-3593
▁russ	-3594
▁accom	-3595
▁appre	-3596
▁giant	-3597
▁members	-3598
▁missing	-3599
▁differently	-3600
▁possibility	-3601
vit	-3602
mark	-3603
plant	-3604
▁asia	-3605
▁disp	-3606
▁click	-3607
▁surge	-3608
▁female	-3609
▁acceler	-3610
▁balance	-3611
▁concent	-3612
▁contact	-3613
▁moments	-3614
▁addition	-3615
▁facebook	-3616
▁landscape	-3617
▁societies	-3618
▁civilization	-3619
ino	-3620
ears	-3621
oper	-3622
▁ble	-3623
▁tast	-3624
▁fully	-3625
▁advant	-3626
▁symmet	-3627
▁conduct	-3628
▁independent	-3629
end	-3630
▁fed	-3631
▁nan	-3632
▁fresh	-3633
▁brings	-3634
▁depart	-3635
▁forever	-3636
▁theater	-3637
▁sequence	-3638
▁competition	-3639
▁fascinating	-3640
set	-3641
ued	-3642
vity	-3643
▁arts	-3644
▁bord	-3645
▁corpor	-3646
▁french	-3647
▁british	-3648
▁benefits	-3649
▁disaster	-3650
▁identity	-3651
ada	-3652
cra	-3653
▁cru	-3654
▁pros	-3655
▁puzz	-3656
▁rout	-3657
thetic	-3658
▁agree	-3659
▁bright	-3660
▁fellow	-3661
▁passed	-3662
▁appreci	-3663
▁fighting	-3664
▁platform	-3665
▁particles	-3666
▁colleagues	-3667
▁institution	-3668
▁relationships	-3669
ae	-3670
raid	-3671
itely	-3672
▁bomb	-3673
▁cogn	-3674
▁spot	-3675
aining	-3676
▁grass	-3677
▁leads	-3678
▁motor	-3679
▁weird	-3680
▁finger	-3681
▁letter	-3682
▁stream	-3683
▁figured	-3684
▁discovery	-3685
▁intellect	-3686
har	-3687
cest	-3688
▁400	-3689
▁forg	-3690
▁iron	-3691
ifying	-3692
▁lucky	-3693
▁afraid	-3694
▁nearly	-3695
ographic	-3696
▁counter	-3697
▁knowing	-3698
▁leading	-3699
▁distance	-3700
▁separate	-3701
▁religious	-3702
▁organizations	-3703
cr	-3704
asa	-3705
▁ah	-3706
▁fol	-3707
▁intu	-3708
▁purs	-3709
▁accur	-3710
connect	-3711
▁emotion	-3712
▁influence	-3713
▁phenomenon	-3714
▁opportunities	-3715
vey	-3716
▁ep	-3717
ties	-3718
▁ray	-3719
orith	-3720
verse	-3721
▁chann	-3722
▁ancest	-3723
▁cooper	-3724
▁speech	-3725
▁benefit	-3726
▁install	-3727
▁algorith	-3728
▁creation	-3729
▁metaphor	-3730
▁structures	-3731
▁experiences	-3732
▁necessarily	-3733
ya	-3734
pro	-3735
▁1.	-3736
ding	-3737
▁150	-3738
▁seat	-3739
▁pengu	-3740
▁versus	-3741
▁holding	-3742
▁invisible	-3743
▁statistics	-3744
▁consumption	-3745
la	-3746
▁ju	-3747
▁dry	-3748
atell	-3749
▁adop	-3750
▁male	-3751
▁tick	-3752
▁noise	-3753
▁consid	-3754
▁lesson	-3755
▁insight	-3756
▁trained	-3757
pre	-3758
▁ug	-3759
band	-3760
iber	-3761
▁cos	-3762
▁org	-3763
▁unc	-3764
eness	-3765
iable	-3766
▁cand	-3767
▁chur	-3768
▁coal	-3769
▁1,000	-3770
▁truck	-3771
▁caught	-3772
▁depend	-3773
▁events	-3774
ibilities	-3775
und	-3776
enty	-3777
roud	-3778
uary	-3779
▁mir	-3780
▁spl	-3781
inist	-3782
print	-3783
▁anti	-3784
▁brown	-3785
▁faces	-3786
▁legal	-3787
▁subst	-3788
▁uncle	-3789
▁walls	-3790
instead	-3791
▁satell	-3792
ifically	-3793
▁describe	-3794
vant	-3795
▁bag	-3796
again	-3797
eared	-3798
▁boat	-3799
▁foss	-3800
▁note	-3801
▁lunch	-3802
▁mosqu	-3803
▁inform	-3804
▁phones	-3805
▁remote	-3806
▁sector	-3807
▁shares	-3808
▁wisdom	-3809
▁brother	-3810
▁billions	-3811
▁soldiers	-3812
▁engineers	-3813
▁suffering	-3814
fl	-3815
eral	-3816
uing	-3817
ysis	-3818
▁row	-3819
▁astr	-3820
▁held	-3821
▁vent	-3822
ording	-3823
▁brief	-3824
▁helps	-3825
▁fields	-3826
▁replic	-3827
▁unlike	-3828
▁justice	-3829
▁kilomet	-3830
▁prototy	-3831
▁previous	-3832
▁agriculture	-3833
▁unfortunately	-3834
9,	-3835
mar	-3836
zil	-3837
▁mer	-3838
itter	-3839
▁drag	-3840
▁scri	-3841
▁ship	-3842
atures	-3843
urally	-3844
▁moves	-3845
▁expert	-3846
▁slowly	-3847
▁therap	-3848
▁destroy	-3849
▁element	-3850
▁leaving	-3851
▁station	-3852
2,	-3853
pes	-3854
son	-3855
ypt	-3856
▁mur	-3857
▁shr	-3858
throp	-3859
▁epid	-3860
▁diver	-3861
▁maint	-3862
▁quote	-3863
▁dreams	-3864
▁driven	-3865
▁galaxy	-3866
▁opened	-3867
▁review	-3868
▁signal	-3869
▁engineer	-3870
▁finished	-3871
▁economics	-3872
▁necessary	-3873
▁importantly	-3874
▁responsible	-3875
▁professional	-3876
ett	-3877
irt	-3878
isco	-3879
xies	-3880
▁hun	-3881
▁mel	-3882
idden	-3883
▁exch	-3884
▁flat	-3885
▁meat	-3886
▁apple	-3887
▁avoid	-3888
▁grain	-3889
▁habit	-3890
▁proud	-3891
▁steps	-3892
▁desire	-3893
ulations	-3894
▁capable	-3895
▁warming	-3896
▁compared	-3897
▁magazine	-3898
▁molecule	-3899
▁opposite	-3900
▁mathematics	-3901
tw	-3902
▁1,	-3903
▁kn	-3904
tical	-3905
ulous	-3906
while	-3907
ulated	-3908
▁franc	-3909
▁indic	-3910
▁stuck	-3911
▁brazil	-3912
▁closed	-3913
▁colors	-3914
▁raised	-3915
▁organic	-3916
▁tomorrow	-3917
▁childhood	-3918
▁principle	-3919
▁intelligent	-3920
20	-3921
anes	-3922
pper	-3923
▁len	-3924
▁wow	-3925
▁bits	-3926
▁exer	-3927
▁lady	-3928
▁load	-3929
terday	-3930
▁egypt	-3931
▁infin	-3932
▁circle	-3933
▁easier	-3934
▁profit	-3935
▁thinks	-3936
▁failure	-3937
▁insects	-3938
▁regular	-3939
▁weapons	-3940
▁emotions	-3941
▁concerned	-3942
▁hopefully	-3943
▁languages	-3944
▁principles	-3945
▁blow	-3946
▁evil	-3947
▁kick	-3948
▁wave	-3949
▁pages	-3950
▁transp	-3951
▁artific	-3952
▁despite	-3953
▁typical	-3954
▁volunte	-3955
▁airplane	-3956
▁entirely	-3957
▁galaxies	-3958
▁operating	-3959
▁investment	-3960
dy	-3961
reg	-3962
tod	-3963
aker	-3964
agers	-3965
craft	-3966
▁adults	-3967
▁deeply	-3968
▁oceans	-3969
▁equival	-3970
▁precise	-3971
▁studied	-3972
▁advantage	-3973
▁otherwise	-3974
▁perfectly	-3975
▁professor	-3976
ked	-3977
▁tag	-3978
ropri	-3979
▁roof	-3980
▁embra	-3981
▁grade	-3982
▁grown	-3983
▁simpl	-3984
▁attach	-3985
▁darwin	-3986
▁fourth	-3987
▁obsess	-3988
▁factory	-3989
▁malaria	-3990
▁matters	-3991
▁traffic	-3992
▁document	-3993
▁institute	-3994
▁universal	-3995
ael	-3996
emy	-3997
ipe	-3998
ager	-3999
oted	-4000
vere	-4001
wide	-4002
▁reb	-4003
▁bush	-4004
▁cosm	-4005
▁hate	-4006
▁soph	-4007
▁beach	-4008
▁faith	-4009
▁novel	-4010
▁shoes	-4011
instein	-4012
oration	-4013
▁pounds	-4014
▁reward	-4015
▁target	-4016
▁replace	-4017
▁weather	-4018
▁multiple	-4019
▁ultimately	-4020
ns	-4021
fin	-4022
iat	-4023
apse	-4024
▁era	-4025
▁sen	-4026
▁ton	-4027
▁dial	-4028
▁empt	-4029
idents	-4030
▁cycle	-4031
▁heads	-4032
▁names	-4033
▁failed	-4034
▁movies	-4035
▁origin	-4036
▁toward	-4037
▁article	-4038
▁austral	-4039
▁compare	-4040
▁require	-4041
▁accident	-4042
ius	-4043
oom	-4044
▁mc	-4045
aked	-4046
0,000	-4047
apers	-4048
▁pair	-4049
▁crime	-4050
▁exhib	-4051
▁prior	-4052
▁rural	-4053
mission	-4054
▁church	-4055
▁convin	-4056
▁sister	-4057
▁library	-4058
▁managed	-4059
▁politic	-4060
▁succeed	-4061
▁designing	-4062
.'	-4063
why	-4064
yes	-4065
ogen	-4066
▁bear	-4067
▁farm	-4068
▁opin	-4069
ensity	-4070
iration	-4071
▁opening	-4072
▁argument	-4073
▁cognitive	-4074
▁entertain	-4075
▁dimensions	-4076
hi	-4077
cil	-4078
ham	-4079
lin	-4080
iest	-4081
▁van	-4082
▁wik	-4083
▁bone	-4084
▁rein	-4085
▁whom	-4086
▁hyper	-4087
▁offer	-4088
▁round	-4089
▁stock	-4090
▁tumor	-4091
▁begins	-4092
▁debate	-4093
▁incent	-4094
▁meters	-4095
▁motion	-4096
▁drawing	-4097
▁normally	-4098
▁planning	-4099
▁strength	-4100
▁depression	-4101
bi	-4102
ris	-4103
▁und	-4104
▁diet	-4105
▁shif	-4106
▁soil	-4107
▁spin	-4108
▁wond	-4109
▁implic	-4110
▁propos	-4111
▁protein	-4112
▁everyday	-4113
▁seriously	-4114
▁department	-4115
▁washington	-4116
imag	-4117
▁cha	-4118
▁saf	-4119
▁arms	-4120
▁gang	-4121
▁inner	-4122
▁plane	-4123
▁valley	-4124
▁curious	-4125
▁highest	-4126
▁believed	-4127
▁european	-4128
▁mentioned	-4129
▁yesterday	-4130
val	-4131
▁hi	-4132
▁bon	-4133
essel	-4134
today	-4135
▁defe	-4136
▁grab	-4137
▁shut	-4138
▁crowd	-4139
issions	-4140
ruction	-4141
▁display	-4142
▁shouldn	-4143
▁anderson	-4144
▁contract	-4145
▁equivalent	-4146
leg	-4147
ses	-4148
▁♫"	-4149
athy	-4150
▁fif	-4151
▁mak	-4152
▁pac	-4153
▁ants	-4154
▁jack	-4155
▁diagn	-4156
▁quiet	-4157
▁harder	-4158
▁hidden	-4159
▁covered	-4160
▁wearing	-4161
▁surprise	-4162
▁described	-4163
▁interface	-4164
▁producing	-4165
▁leadership	-4166
▁consequences	-4167
ume	-4168
aurs	-4169
iors	-4170
lesc	-4171
▁mig	-4172
▁poo	-4173
ortex	-4174
▁bees	-4175
▁stim	-4176
▁stone	-4177
▁commit	-4178
▁dinner	-4179
▁explan	-4180
▁spring	-4181
▁telesc	-4182
▁britain	-4183
▁followed	-4184
▁ordinary	-4185
▁chemistry	-4186
▁artificial	-4187
▁transformation	-4188
aled	-4189
▁pak	-4190
▁scr	-4191
iency	-4192
iving	-4193
▁agre	-4194
▁frag	-4195
▁mile	-4196
▁argue	-4197
▁perce	-4198
ruption	-4199
▁exists	-4200
▁filled	-4201
▁vessel	-4202
▁extract	-4203
▁vehicle	-4204
▁worried	-4205
▁northern	-4206
▁pakistan	-4207
▁worldwide	-4208
mp	-4209
ta	-4210
hold	-4211
▁gap	-4212
▁jan	-4213
illed	-4214
▁wear	-4215
▁horse	-4216
▁layer	-4217
▁sport	-4218
▁assemb	-4219
▁grandm	-4220
▁mexico	-4221
▁paying	-4222
▁stupid	-4223
▁100,000	-4224
▁battery	-4225
▁details	-4226
▁investig	-4227
▁survival	-4228
▁currently	-4229
▁collective	-4230
▁constantly	-4231
▁expression	-4232
▁distribution	-4233
▁entrepreneurs	-4234
▁lu	-4235
eper	-4236
▁nerv	-4237
itness	-4238
▁holes	-4239
▁scene	-4240
▁sugar	-4241
▁veget	-4242
entally	-4243
▁circum	-4244
▁neuros	-4245
▁shapes	-4246
▁letters	-4247
▁signals	-4248
▁resource	-4249
▁electrical	-4250
1,	-4251
pan	-4252
look	-4253
roph	-4254
▁lie	-4255
erves	-4256
uries	-4257
▁chap	-4258
▁hasn	-4259
▁myth	-4260
▁trip	-4261
▁marri	-4262
▁paint	-4263
▁paral	-4264
▁muscle	-4265
▁majority	-4266
fish	-4267
ocol	-4268
uces	-4269
▁rub	-4270
▁ange	-4271
▁kore	-4272
▁poem	-4273
▁snow	-4274
▁islam	-4275
▁caused	-4276
▁michael	-4277
▁mothers	-4278
▁setting	-4279
▁hydrogen	-4280
▁property	-4281
▁chemicals	-4282
▁dinosaurs	-4283
ibr	-4284
cket	-4285
▁nur	-4286
▁pil	-4287
asion	-4288
cking	-4289
▁fell	-4290
▁mart	-4291
▁reef	-4292
▁coral	-4293
▁lifet	-4294
▁battle	-4295
▁finish	-4296
▁george	-4297
▁trials	-4298
▁husband	-4299
▁invited	-4300
▁keeping	-4301
▁einstein	-4302
▁strategy	-4303
ees	-4304
lex	-4305
may	-4306
▁fal	-4307
▁inj	-4308
▁mat	-4309
think	-4310
which	-4311
▁disc	-4312
▁glam	-4313
▁lift	-4314
▁pray	-4315
▁warm	-4316
▁daily	-4317
▁equip	-4318
▁negot	-4319
▁damage	-4320
▁leader	-4321
▁losing	-4322
▁unless	-4323
▁lessons	-4324
▁viruses	-4325
▁clinical	-4326
▁launched	-4327
▁continent	-4328
▁convention	-4329
▁democratic	-4330
▁importance	-4331
▁researchers	-4332
gl	-4333
ka	-4334
irm	-4335
oun	-4336
gets	-4337
▁mas	-4338
place	-4339
▁dots	-4340
▁hung	-4341
▁maps	-4342
▁nasa	-4343
▁puts	-4344
▁wars	-4345
acters	-4346
▁2,000	-4347
▁equal	-4348
▁flies	-4349
▁toxic	-4350
▁stress	-4351
▁studio	-4352
▁charles	-4353
▁nervous	-4354
▁radical	-4355
▁appropri	-4356
▁congress	-4357
▁characters	-4358
▁interaction	-4359
▁evolutionary	-4360
rs	-4361
her	-4362
iot	-4363
▁35	-4364
▁date	-4365
▁grid	-4366
▁hadn	-4367
▁orch	-4368
▁surf	-4369
▁vote	-4370
▁folks	-4371
▁fract	-4372
▁heavy	-4373
▁shall	-4374
▁steel	-4375
▁advert	-4376
▁fossil	-4377
▁leaves	-4378
▁picked	-4379
▁reform	-4380
▁script	-4381
▁cutting	-4382
▁dynamic	-4383
▁illness	-4384
▁married	-4385
▁mosquit	-4386
▁players	-4387
▁treated	-4388
▁feelings	-4389
▁equipment	-4390
▁increasingly	-4391
ax	-4392
bble	-4393
odes	-4394
omas	-4395
thal	-4396
paper	-4397
point	-4398
▁diam	-4399
▁liqu	-4400
▁peak	-4401
▁dealing	-4402
▁microsc	-4403
▁sources	-4404
▁testing	-4405
▁twitter	-4406
▁emerging	-4407
▁pleasure	-4408
▁invention	-4409
▁mountains	-4410
▁organized	-4411
▁businesses	-4412
▁restaurant	-4413
▁alternative	-4414
0.	-4415
bal	-4416
hab	-4417
▁ru	-4418
cipl	-4419
iques	-4420
▁intr	-4421
▁empty	-4422
▁limit	-4423
▁metal	-4424
▁recon	-4425
▁sites	-4426
▁smile	-4427
▁budget	-4428
▁gather	-4429
▁laptop	-4430
▁england	-4431
▁roughly	-4432
▁suppose	-4433
▁variety	-4434
▁cultures	-4435
▁feedback	-4436
▁sentence	-4437
▁sophistic	-4438
▁technical	-4439
▁efficiency	-4440
▁transition	-4441
▁generations	-4442
▁grandmother	-4443
▁intellectual	-4444
enn	-4445
▁due	-4446
▁pin	-4447
▁sla	-4448
ipped	-4449
neath	-4450
▁club	-4451
▁desk	-4452
▁scen	-4453
▁suit	-4454
▁weak	-4455
▁aging	-4456
▁solid	-4457
▁teeth	-4458
another	-4459
▁buying	-4460
▁garden	-4461
▁negoti	-4462
▁player	-4463
actually	-4464
▁japanese	-4465
▁thoughts	-4466
▁practical	-4467
▁controlled	-4468
ym	-4469
que	-4470
from	-4471
▁flex	-4472
▁hill	-4473
▁lect	-4474
▁wake	-4475
ablish	-4476
second	-4477
▁driver	-4478
▁extend	-4479
▁medium	-4480
▁killing	-4481
▁limited	-4482
▁selling	-4483
▁analysis	-4484
▁consumer	-4485
▁establish	-4486
▁photographs	-4487
▁possibilities	-4488
▁q	-4489
pet	-4490
▁cow	-4491
▁lic	-4492
▁nav	-4493
itude	-4494
▁abst	-4495
▁ends	-4496
▁valu	-4497
rument	-4498
▁concl	-4499
▁manip	-4500
▁spoke	-4501
▁theme	-4502
▁marine	-4503
▁arrived	-4504
▁calling	-4505
▁experts	-4506
▁concentr	-4507
▁minister	-4508
▁spectrum	-4509
▁essential	-4510
▁mortality	-4511
▁associated	-4512
▁instrument	-4513
▁effectively	-4514
▁construction	-4515
ago	-4516
bur	-4517
mas	-4518
edic	-4519
▁mac	-4520
▁rat	-4521
estic	-4522
▁init	-4523
▁pure	-4524
▁resc	-4525
▁user	-4526
▁awful	-4527
▁kenya	-4528
▁belong	-4529
▁safety	-4530
▁sphere	-4531
▁chicken	-4532
▁contain	-4533
▁exchange	-4534
▁exercise	-4535
▁generate	-4536
▁according	-4537
▁kilometers	-4538
▁perception	-4539
▁represents	-4540
▁underneath	-4541
4,	-4542
log	-4543
know	-4544
once	-4545
ront	-4546
▁atl	-4547
▁glo	-4548
olves	-4549
▁army	-4550
▁lies	-4551
▁qual	-4552
▁recy	-4553
▁silk	-4554
▁chain	-4555
▁chart	-4556
▁colon	-4557
▁genet	-4558
▁contem	-4559
▁winter	-4560
▁command	-4561
▁harvard	-4562
▁outcome	-4563
▁witness	-4564
▁struggle	-4565
▁trillion	-4566
▁carefully	-4567
▁generally	-4568
▁surprised	-4569
▁considered	-4570
▁protection	-4571
mon	-4572
zed	-4573
ests	-4574
▁bee	-4575
▁pun	-4576
▁hunt	-4577
encies	-4578
▁categ	-4579
▁honor	-4580
▁james	-4581
▁kitch	-4582
however	-4583
▁factor	-4584
▁sharks	-4585
▁status	-4586
▁pacific	-4587
▁advanced	-4588
▁identify	-4589
▁suggests	-4590
▁computing	-4591
▁disappear	-4592
3,	-4593
dp	-4594
ato	-4595
▁ox	-4596
▁py	-4597
gers	-4598
irty	-4599
mber	-4600
pell	-4601
pret	-4602
zing	-4603
▁nar	-4604
▁dish	-4605
▁ride	-4606
▁ideal	-4607
▁occup	-4608
▁repub	-4609
▁saved	-4610
▁stood	-4611
▁style	-4612
▁organs	-4613
▁nigeria	-4614
▁abstract	-4615
▁convince	-4616
▁reaction	-4617
▁encourage	-4618
▁molecular	-4619
▁newspaper	-4620
▁management	-4621
▁techniques	-4622
▁connections	-4623
▁specifically	-4624
icy	-4625
ike	-4626
wor	-4627
▁'9	-4628
care	-4629
▁bow	-4630
▁wat	-4631
▁biom	-4632
▁decl	-4633
▁unit	-4634
▁compl	-4635
▁sweet	-4636
▁users	-4637
▁credit	-4638
▁fortun	-4639
▁liquid	-4640
▁reprod	-4641
▁centers	-4642
▁affected	-4643
▁expected	-4644
▁graduate	-4645
▁location	-4646
▁mathematical	-4647
see	-4648
cend	-4649
ingu	-4650
time	-4651
▁bio	-4652
▁tan	-4653
▁plus	-4654
▁tall	-4655
▁atoms	-4656
▁digit	-4657
▁input	-4658
▁prove	-4659
▁rates	-4660
▁serve	-4661
▁waves	-4662
▁forced	-4663
▁skelet	-4664
▁videos	-4665
▁gravity	-4666
▁illustr	-4667
▁primary	-4668
▁promise	-4669
▁explains	-4670
▁marketing	-4671
▁processes	-4672
▁satellite	-4673
▁relatively	-4674
▁ip	-4675
stic	-4676
▁odd	-4677
▁2000	-4678
▁axis	-4679
▁pole	-4680
▁remo	-4681
▁thin	-4682
▁unex	-4683
▁wine	-4684
ension	-4685
forest	-4686
lation	-4687
pected	-4688
▁broke	-4689
▁goals	-4690
▁homes	-4691
▁initi	-4692
itarian	-4693
through	-4694
▁bottle	-4695
▁define	-4696
▁forgot	-4697
▁ingred	-4698
▁poetry	-4699
▁rocket	-4700
▁string	-4701
▁voices	-4702
▁partner	-4703
▁circumst	-4704
▁epidemic	-4705
▁lifetime	-4706
▁republic	-4707
▁emissions	-4708
▁francisco	-4709
▁movements	-4710
▁comfortable	-4711
▁presentation	-4712
ded	-4713
don	-4714
airs	-4715
▁asp	-4716
▁wal	-4717
▁bath	-4718
▁pian	-4719
▁unus	-4720
mented	-4721
▁grant	-4722
▁liked	-4723
▁analog	-4724
▁compos	-4725
▁solved	-4726
▁cameras	-4727
▁however	-4728
▁brothers	-4729
▁introduced	-4730
▁mathematic	-4731
▁situations	-4732
▁environments	-4733
rel	-4734
ooth	-4735
tell	-4736
▁haw	-4737
▁oct	-4738
▁spo	-4739
icing	-4740
▁bare	-4741
▁bran	-4742
▁dipl	-4743
▁reci	-4744
anyway	-4745
ipping	-4746
thesis	-4747
▁cards	-4748
ulating	-4749
▁assign	-4750
▁canada	-4751
▁conver	-4752
▁height	-4753
▁kitchen	-4754
▁quarter	-4755
▁rapidly	-4756
▁sending	-4757
▁administ	-4758
▁astronom	-4759
▁marriage	-4760
▁mistakes	-4761
▁prepared	-4762
▁requires	-4763
▁corruption	-4764
▁discussion	-4765
▁passionate	-4766
va	-4767
amb	-4768
ara	-4769
▁45	-4770
roll	-4771
▁les	-4772
orous	-4773
▁gulf	-4774
▁hypo	-4775
▁mont	-4776
▁runs	-4777
▁yout	-4778
ctions	-4779
titude	-4780
▁aston	-4781
▁domin	-4782
▁renew	-4783
▁shoot	-4784
▁advent	-4785
▁channel	-4786
▁discipl	-4787
▁instrum	-4788
▁unusual	-4789
▁director	-4790
▁whenever	-4791
▁behaviors	-4792
▁convinced	-4793
▁employees	-4794
▁components	-4795
▁definitely	-4796
▁collaboration	-4797
igm	-4798
ula	-4799
▁99	-4800
bors	-4801
oles	-4802
umps	-4803
▁ham	-4804
▁hem	-4805
▁tow	-4806
vable	-4807
▁dogs	-4808
▁hits	-4809
▁mira	-4810
▁ring	-4811
▁flash	-4812
▁risks	-4813
imagine	-4814
llywood	-4815
▁facing	-4816
▁length	-4817
▁mirror	-4818
▁regard	-4819
▁thomas	-4820
▁worlds	-4821
▁eastern	-4822
▁youtube	-4823
▁received	-4824
▁valuable	-4825
▁wireless	-4826
▁existence	-4827
▁naturally	-4828
▁sensitive	-4829
▁wondering	-4830
abet	-4831
berg	-4832
cast	-4833
▁dot	-4834
▁dut	-4835
▁vag	-4836
▁acqu	-4837
▁exec	-4838
▁fake	-4839
▁gift	-4840
▁lawy	-4841
ipedia	-4842
▁court	-4843
▁march	-4844
▁minim	-4845
▁polar	-4846
▁reven	-4847
▁upper	-4848
▁compar	-4849
▁diplom	-4850
▁member	-4851
▁prefer	-4852
▁applied	-4853
▁cartoon	-4854
▁privile	-4855
▁singing	-4856
▁watched	-4857
▁carrying	-4858
▁radiation	-4859
▁exploration	-4860
▁sophisticated	-4861
ams	-4862
bre	-4863
cap	-4864
▁aug	-4865
▁bay	-4866
▁jer	-4867
▁jul	-4868
▁las	-4869
amics	-4870
lying	-4871
maybe	-4872
▁clip	-4873
▁gras	-4874
▁mand	-4875
▁stan	-4876
▁tons	-4877
▁added	-4878
▁clock	-4879
▁facts	-4880
▁sides	-4881
▁union	-4882
▁clever	-4883
▁iphone	-4884
▁virgin	-4885
▁circuit	-4886
▁windows	-4887
▁election	-4888
▁infected	-4889
▁psychology	-4890
au	-4891
car	-4892
uls	-4893
adic	-4894
vent	-4895
▁194	-4896
▁gdp	-4897
lines	-4898
▁crim	-4899
▁gree	-4900
▁blocks	-4901
▁critic	-4902
▁powered	-4903
▁reverse	-4904
▁victims	-4905
▁awareness	-4906
▁,	-4907
500	-4908
two	-4909
ament	-4910
child	-4911
▁subs	-4912
uments	-4913
▁ought	-4914
▁skill	-4915
▁clinic	-4916
▁deeper	-4917
▁houses	-4918
▁inevit	-4919
▁afterno	-4920
▁cooking	-4921
▁depends	-4922
▁germany	-4923
▁opinion	-4924
▁paralle	-4925
▁release	-4926
▁microbes	-4927
▁sunlight	-4928
▁framework	-4929
▁behavioral	-4930
▁innovative	-4931
▁properties	-4932
nes	-4933
▁du	-4934
▁bat	-4935
▁ber	-4936
▁cub	-4937
▁lens	-4938
▁shar	-4939
ternal	-4940
▁season	-4941
▁capture	-4942
▁vaccine	-4943
▁creature	-4944
▁penguins	-4945
▁australia	-4946
▁gentlemen	-4947
▁neighbors	-4948
▁pollution	-4949
▁typically	-4950
▁wikipedia	-4951
fortunately	-4952
▁experienced	-4953
vi	-4954
nda	-4955
▁gri	-4956
▁corn	-4957
▁fert	-4958
▁gain	-4959
▁pump	-4960
cience	-4961
porary	-4962
▁absor	-4963
▁claim	-4964
▁former	-4965
▁pulled	-4966
▁robert	-4967
▁unknow	-4968
▁burning	-4969
▁consist	-4970
▁designs	-4971
▁mistake	-4972
▁solving	-4973
▁internal	-4974
▁proteins	-4975
▁interests	-4976
▁confidence	-4977
▁laboratory	-4978
▁processing	-4979
▁productive	-4980
▁combination	-4981
▁destruction	-4982
cal	-4983
cers	-4984
▁fou	-4985
itals	-4986
lands	-4987
▁hurt	-4988
▁joke	-4989
▁rush	-4990
▁shad	-4991
▁curve	-4992
▁dedic	-4993
▁goods	-4994
▁hotel	-4995
▁sympt	-4996
▁cortex	-4997
▁drives	-4998
▁explos	-4999
▁fabric	-5000
▁hoping	-5001
▁linked	-5002
▁monkey	-5003
▁sexual	-5004
▁defense	-5005
▁harvest	-5006
▁quantum	-5007
▁relevant	-5008
▁southern	-5009
▁tracking	-5010
▁afternoon	-5011
▁functions	-5012
▁introduce	-5013
▁traveling	-5014
▁personally	-5015
▁vulnerable	-5016
▁technological	-5017
▁na	-5018
yeah	-5019
▁der	-5020
▁ens	-5021
▁rhy	-5022
▁rit	-5023
▁som	-5024
sters	-5025
▁asks	-5026
▁diss	-5027
▁furn	-5028
▁sees	-5029
▁swed	-5030
▁5,000	-5031
▁climb	-5032
▁colum	-5033
▁eleph	-5034
▁estim	-5035
▁fewer	-5036
▁films	-5037
▁keeps	-5038
▁thick	-5039
▁trend	-5040
▁muslim	-5041
▁extinct	-5042
▁feature	-5043
▁violent	-5044
abilities	-5045
▁required	-5046
▁terrorism	-5047
▁percentage	-5048
▁profession	-5049
▁politicians	-5050
▁fundamentally	-5051
da	-5052
vin	-5053
ogue	-5054
▁gay	-5055
▁jew	-5056
▁sem	-5057
▁wel	-5058
athan	-5059
▁cast	-5060
▁chic	-5061
▁deli	-5062
▁poly	-5063
▁depth	-5064
▁error	-5065
▁notes	-5066
▁pitch	-5067
▁polio	-5068
▁ridic	-5069
▁signs	-5070
▁split	-5071
▁toile	-5072
▁acting	-5073
▁corres	-5074
▁sample	-5075
▁severe	-5076
▁autonom	-5077
▁fingers	-5078
▁orchest	-5079
▁visible	-5080
▁birthday	-5081
▁collapse	-5082
▁messages	-5083
▁occurred	-5084
▁rational	-5085
▁recorded	-5086
▁literature	-5087
▁explanation	-5088
▁participate	-5089
▁circumstances	-5090
▁manufacturing	-5091
30	-5092
rog	-5093
uel	-5094
van	-5095
amin	-5096
▁tab	-5097
▁toy	-5098
enced	-5099
iture	-5100
▁alex	-5101
▁bicy	-5102
▁ears	-5103
▁gray	-5104
▁plot	-5105
▁pregn	-5106
▁tests	-5107
▁topic	-5108
▁assist	-5109
▁boring	-5110
▁formed	-5111
▁inject	-5112
▁spider	-5113
▁survey	-5114
▁comment	-5115
▁decline	-5116
▁defined	-5117
▁dropped	-5118
▁empower	-5119
▁encoura	-5120
▁funding	-5121
▁musical	-5122
▁surgeon	-5123
▁accurate	-5124
▁instruct	-5125
▁organism	-5126
▁selection	-5127
▁activities	-5128
▁electronic	-5129
▁appropriate	-5130
▁inspiration	-5131
▁entertainment	-5132
yl	-5133
abol	-5134
icip	-5135
uits	-5136
▁atom	-5137
▁mush	-5138
▁sets	-5139
▁tape	-5140
▁3,000	-5141
▁chimp	-5142
▁embed	-5143
▁expon	-5144
▁falls	-5145
▁wired	-5146
▁boston	-5147
▁option	-5148
▁pollen	-5149
▁shaped	-5150
▁volume	-5151
▁chicago	-5152
▁include	-5153
▁options	-5154
▁unclear	-5155
▁hospitals	-5156
▁operation	-5157
▁protected	-5158
▁storytell	-5159
uge	-5160
▁il	-5161
aren	-5162
last	-5163
osis	-5164
whel	-5165
▁dol	-5166
▁gps	-5167
▁gut	-5168
▁lou	-5169
▁max	-5170
▁pad	-5171
▁eggs	-5172
▁gest	-5173
▁ment	-5174
▁tube	-5175
▁antib	-5176
▁sight	-5177
▁stret	-5178
▁taste	-5179
plicity	-5180
▁bubble	-5181
▁golden	-5182
▁portra	-5183
▁factors	-5184
▁falling	-5185
▁figures	-5186
▁flowers	-5187
▁intense	-5188
▁records	-5189
▁measured	-5190
▁overwhel	-5191
▁ancestors	-5192
▁interpret	-5193
▁performing	-5194
ih	-5195
ij	-5196
aven	-5197
lock	-5198
belie	-5199
eline	-5200
state	-5201
▁bell	-5202
▁hide	-5203
▁lake	-5204
▁nose	-5205
▁pink	-5206
▁pool	-5207
▁span	-5208
▁trig	-5209
isters	-5210
▁bombs	-5211
▁coord	-5212
▁doubt	-5213
▁honey	-5214
▁memor	-5215
▁shame	-5216
▁staff	-5217
▁divide	-5218
▁genius	-5219
▁patent	-5220
▁dancing	-5221
▁fishing	-5222
▁reached	-5223
▁vehicles	-5224
▁educational	-5225
azz	-5226
ota	-5227
ums	-5228
wel	-5229
▁ze	-5230
▁uns	-5231
▁ven	-5232
entic	-5233
▁budd	-5234
▁chip	-5235
▁disg	-5236
▁lets	-5237
▁nest	-5238
▁nurs	-5239
▁pill	-5240
▁soul	-5241
▁globe	-5242
▁horiz	-5243
▁lying	-5244
▁recom	-5245
▁accompl	-5246
▁conclud	-5247
▁conserv	-5248
▁operate	-5249
▁regions	-5250
▁remains	-5251
▁therapy	-5252
▁tonight	-5253
▁released	-5254
▁footprint	-5255
▁technique	-5256
▁meaningful	-5257
opy	-5258
greg	-5259
heim	-5260
keys	-5261
▁phr	-5262
gment	-5263
▁cath	-5264
▁golf	-5265
▁mere	-5266
illing	-5267
iosity	-5268
olving	-5269
▁liver	-5270
▁sahar	-5271
▁title	-5272
ptember	-5273
▁deaths	-5274
▁lifest	-5275
▁perman	-5276
▁breathe	-5277
▁islands	-5278
▁dramatic	-5279
▁existing	-5280
▁paradigm	-5281
▁presence	-5282
▁transfer	-5283
▁authority	-5284
▁determine	-5285
▁explained	-5286
▁healthcare	-5287
▁mechanical	-5288
▁conservation	-5289
▁entrepreneur	-5290
mal	-5291
▁2.	-5292
anze	-5293
bage	-5294
icted	-5295
▁prem	-5296
▁sess	-5297
▁wing	-5298
▁zoom	-5299
stream	-5300
▁dress	-5301
▁fifth	-5302
▁obser	-5303
▁plans	-5304
▁queen	-5305
▁refer	-5306
▁resil	-5307
▁slides	-5308
▁airport	-5309
▁balloon	-5310
▁classic	-5311
▁closely	-5312
▁engaged	-5313
▁finance	-5314
▁concepts	-5315
▁features	-5316
▁somewhat	-5317
▁continued	-5318
▁reference	-5319
▁transplant	-5320
▁implications	-5321
▁transportation	-5322
off	-5323
osh	-5324
▁ii	-5325
anta	-5326
cons	-5327
ctic	-5328
rete	-5329
uild	-5330
uses	-5331
▁arr	-5332
▁beg	-5333
▁tro	-5334
abled	-5335
icide	-5336
▁flew	-5337
▁item	-5338
▁milk	-5339
▁neut	-5340
▁pand	-5341
▁peer	-5342
▁salt	-5343
▁tank	-5344
▁ther	-5345
▁zone	-5346
▁dozen	-5347
▁insur	-5348
▁piano	-5349
▁plate	-5350
▁chocol	-5351
▁handle	-5352
▁ladies	-5353
▁remain	-5354
▁traged	-5355
aneously	-5356
cription	-5357
inations	-5358
▁amounts	-5359
▁clothes	-5360
▁scratch	-5361
▁equation	-5362
▁horrible	-5363
▁wondered	-5364
▁centuries	-5365
▁increased	-5366
▁september	-5367
▁appreciate	-5368
▁architects	-5369
▁conclusion	-5370
▁economists	-5371
▁distributed	-5372
▁instruments	-5373
▁potentially	-5374
▁applications	-5375
han	-5376
ole	-5377
ille	-5378
life	-5379
▁bes	-5380
▁cup	-5381
▁cure	-5382
▁hook	-5383
▁icon	-5384
▁loud	-5385
▁vibr	-5386
arrass	-5387
▁phase	-5388
▁proof	-5389
▁rooms	-5390
▁steve	-5391
▁titan	-5392
▁wings	-5393
inction	-5394
▁france	-5395
▁limits	-5396
▁papers	-5397
▁relate	-5398
▁combine	-5399
▁unknown	-5400
▁apparent	-5401
▁combined	-5402
▁romantic	-5403
▁shoulder	-5404
▁telescope	-5405
▁algorithms	-5406
ita	-5407
rus	-5408
iled	-5409
many	-5410
mble	-5411
▁250	-5412
▁ped	-5413
▁sac	-5414
▁tap	-5415
those	-5416
▁ages	-5417
▁isol	-5418
▁pace	-5419
▁plug	-5420
▁breed	-5421
▁cents	-5422
▁stack	-5423
▁advice	-5424
▁eradic	-5425
▁remove	-5426
▁careful	-5427
▁causing	-5428
▁monkeys	-5429
▁disorder	-5430
▁infinite	-5431
▁mushroom	-5432
▁stronger	-5433
▁swimming	-5434
▁villages	-5435
▁wherever	-5436
▁chimpanze	-5437
▁embarrass	-5438
▁measuring	-5439
▁sculpture	-5440
▁spiritual	-5441
▁philosophy	-5442
▁unexpected	-5443
▁interactive	-5444
asm	-5445
opia	-5446
▁fan	-5447
▁irr	-5448
▁pra	-5449
▁raw	-5450
▁sir	-5451
▁cere	-5452
▁limb	-5453
▁admit	-5454
▁bones	-5455
▁boxes	-5456
▁chief	-5457
▁explo	-5458
▁imple	-5459
▁pharm	-5460
▁rhyth	-5461
▁satis	-5462
▁agenda	-5463
▁button	-5464
▁deploy	-5465
▁desper	-5466
▁improv	-5467
▁interf	-5468
▁owners	-5469
▁repair	-5470
▁senses	-5471
▁largely	-5472
▁overall	-5473
▁floating	-5474
▁parallel	-5475
▁treating	-5476
▁consumers	-5477
▁simplicity	-5478
▁astonishing	-5479
▁productivity	-5480
jo	-5481
ald	-5482
cut	-5483
also	-5484
lymp	-5485
rors	-5486
▁tea	-5487
▁acts	-5488
▁boom	-5489
▁bron	-5490
▁flag	-5491
▁loop	-5492
▁mall	-5493
herent	-5494
▁craft	-5495
▁label	-5496
▁meter	-5497
▁navig	-5498
▁olymp	-5499
▁paris	-5500
▁storm	-5501
▁vital	-5502
entions	-5503
▁flower	-5504
▁prices	-5505
▁puzzle	-5506
▁actions	-5507
▁evening	-5508
▁section	-5509
▁spectac	-5510
▁obsessed	-5511
▁occasion	-5512
▁symmetry	-5513
▁celebrate	-5514
▁collected	-5515
▁identical	-5516
▁mechanism	-5517
▁narrative	-5518
▁statement	-5519
▁physically	-5520
ey	-5521
agn	-5522
soft	-5523
talk	-5524
wich	-5525
▁ast	-5526
cence	-5527
▁alph	-5528
▁hack	-5529
▁olds	-5530
▁aster	-5531
▁dense	-5532
▁false	-5533
▁korea	-5534
▁obama	-5535
▁prime	-5536
▁roads	-5537
▁shell	-5538
▁silic	-5539
▁songs	-5540
▁toler	-5541
▁filter	-5542
▁russia	-5543
▁writer	-5544
▁disgust	-5545
▁feeding	-5546
▁frankly	-5547
▁neither	-5548
▁vessels	-5549
▁constant	-5550
▁magnetic	-5551
▁component	-5552
▁disorders	-5553
▁inspiring	-5554
▁presented	-5555
▁greenhouse	-5556
▁resolution	-5557
▁transformed	-5558
ja	-5559
bas	-5560
edy	-5561
▁"1	-5562
▁rw	-5563
pass	-5564
▁gig	-5565
▁kne	-5566
▁kno	-5567
▁meg	-5568
force	-5569
iters	-5570
▁cock	-5571
▁pipe	-5572
▁till	-5573
phones	-5574
▁dirty	-5575
▁fuels	-5576
▁haiti	-5577
▁pyram	-5578
▁roots	-5579
▁announ	-5580
▁evolve	-5581
▁attacks	-5582
▁collaps	-5583
▁courage	-5584
▁embrace	-5585
▁origami	-5586
▁proport	-5587
▁instinct	-5588
▁printing	-5589
▁subjects	-5590
▁authentic	-5591
▁curiosity	-5592
▁exploring	-5593
▁intuitive	-5594
▁connecting	-5595
▁controvers	-5596
▁challenging	-5597
▁psychological	-5598
bly	-5599
iel	-5600
ost	-5601
kind	-5602
▁eld	-5603
▁mes	-5604
▁mim	-5605
▁ooh	-5606
▁rig	-5607
▁bike	-5608
▁dece	-5609
▁elim	-5610
▁inch	-5611
▁root	-5612
▁accum	-5613
▁actor	-5614
▁enemy	-5615
▁logic	-5616
▁autism	-5617
▁heroes	-5618
▁scared	-5619
▁stands	-5620
▁tested	-5621
▁chapter	-5622
▁classes	-5623
▁density	-5624
▁diction	-5625
▁divided	-5626
▁impress	-5627
▁mystery	-5628
▁savings	-5629
▁stretch	-5630
▁copyright	-5631
▁furniture	-5632
▁paintings	-5633
▁prototype	-5634
▁standards	-5635
▁manufacture	-5636
▁conventional	-5637
▁automatically	-5638
col	-5639
▁ts	-5640
etch	-5641
otes	-5642
▁eve	-5643
itors	-5644
since	-5645
▁1990	-5646
▁busy	-5647
▁dign	-5648
▁pupp	-5649
▁stro	-5650
▁wise	-5651
rition	-5652
▁angle	-5653
▁delic	-5654
▁flood	-5655
▁excell	-5656
▁extent	-5657
▁fright	-5658
▁lovely	-5659
▁whales	-5660
▁advance	-5661
▁appears	-5662
▁carried	-5663
▁charity	-5664
▁equally	-5665
▁lecture	-5666
▁license	-5667
▁nowhere	-5668
▁poorest	-5669
▁download	-5670
▁provides	-5671
▁microsoft	-5672
▁collection	-5673
▁directions	-5674
▁underwater	-5675
ua	-5676
za	-5677
ira	-5678
itz	-5679
nic	-5680
tes	-5681
▁ba	-5682
nday	-5683
oses	-5684
take	-5685
tery	-5686
▁10,	-5687
▁jon	-5688
▁nit	-5689
▁tex	-5690
iform	-5691
otech	-5692
oxide	-5693
under	-5694
▁dust	-5695
▁jeff	-5696
▁obst	-5697
▁fiber	-5698
▁illeg	-5699
▁imper	-5700
▁persu	-5701
▁reput	-5702
▁seeds	-5703
▁whale	-5704
▁encoun	-5705
▁geomet	-5706
▁latest	-5707
▁orient	-5708
▁output	-5709
▁poison	-5710
▁scream	-5711
▁borders	-5712
▁constit	-5713
▁empathy	-5714
▁parking	-5715
▁rebuild	-5716
▁mosquito	-5717
▁stations	-5718
▁symptoms	-5719
▁chocolate	-5720
▁generated	-5721
▁household	-5722
▁increases	-5723
▁uncertain	-5724
▁incentives	-5725
ba	-5726
inc	-5727
▁23	-5728
oint	-5729
uous	-5730
▁ash	-5731
▁gam	-5732
esome	-5733
using	-5734
▁1950	-5735
▁fulf	-5736
▁nets	-5737
▁outc	-5738
▁barri	-5739
▁bible	-5740
▁decre	-5741
▁fluid	-5742
▁recyc	-5743
▁tries	-5744
▁weigh	-5745
anthrop	-5746
▁enable	-5747
▁hunger	-5748
▁joined	-5749
▁legacy	-5750
▁rising	-5751
▁tricks	-5752
▁aspects	-5753
▁concert	-5754
▁housing	-5755
▁silicon	-5756
▁younger	-5757
sometimes	-5758
▁academic	-5759
▁embedded	-5760
▁lighting	-5761
▁meetings	-5762
▁psychiat	-5763
▁sandwich	-5764
▁christmas	-5765
▁frequency	-5766
▁recording	-5767
▁spreading	-5768
▁translate	-5769
▁resistance	-5770
▁partnership	-5771
hr	-5772
wa	-5773
era	-5774
ardo	-5775
ener	-5776
grad	-5777
onym	-5778
rets	-5779
rous	-5780
▁alt	-5781
▁hat	-5782
▁jim	-5783
archy	-5784
inder	-5785
itory	-5786
usive	-5787
▁dict	-5788
▁gath	-5789
imeter	-5790
usions	-5791
▁chose	-5792
▁crack	-5793
▁faced	-5794
▁manif	-5795
▁sales	-5796
▁shake	-5797
▁spell	-5798
▁commod	-5799
▁frustr	-5800
▁linear	-5801
▁orange	-5802
▁placed	-5803
▁spoken	-5804
▁anticip	-5805
▁awesome	-5806
▁dioxide	-5807
▁earthqu	-5808
▁muslims	-5809
▁silence	-5810
▁africans	-5811
▁allowing	-5812
▁breaking	-5813
▁domestic	-5814
▁friendly	-5815
▁illusion	-5816
▁particle	-5817
▁breathing	-5818
▁depending	-5819
▁dimension	-5820
▁economies	-5821
▁intention	-5822
▁lifestyle	-5823
▁telephone	-5824
▁application	-5825
▁innovations	-5826
pox	-5827
ifer	-5828
▁gro	-5829
▁emph	-5830
▁ethi	-5831
▁tack	-5832
▁champ	-5833
▁humor	-5834
▁skull	-5835
▁texas	-5836
theless	-5837
▁adjust	-5838
▁agreed	-5839
▁candid	-5840
▁plenty	-5841
▁proced	-5842
▁delight	-5843
▁existed	-5844
▁inspire	-5845
▁islamic	-5846
▁metabol	-5847
▁offered	-5848
▁samples	-5849
▁tedtalk	-5850
▁touched	-5851
▁unbelie	-5852
▁wanting	-5853
▁wheelch	-5854
▁whereas	-5855
▁aircraft	-5856
▁contains	-5857
▁contrast	-5858
▁distinct	-5859
▁memories	-5860
▁properly	-5861
▁sciences	-5862
▁stanford	-5863
▁economist	-5864
▁emergency	-5865
▁physicist	-5866
▁providing	-5867
▁journalist	-5868
▁microscope	-5869
▁controlling	-5870
unfortunately	-5871
bra	-5872
lyn	-5873
nel	-5874
yal	-5875
avor	-5876
opes	-5877
▁aqu	-5878
▁gla	-5879
▁unh	-5880
akers	-5881
▁cens	-5882
▁clay	-5883
▁flor	-5884
▁jail	-5885
▁pour	-5886
▁scar	-5887
▁alien	-5888
▁chrom	-5889
▁cliff	-5890
▁dolph	-5891
▁fixed	-5892
▁gates	-5893
▁ghana	-5894
▁grows	-5895
▁judge	-5896
▁latin	-5897
▁plays	-5898
▁remem	-5899
▁teams	-5900
▁uncom	-5901
▁youth	-5902
▁assume	-5903
▁obstac	-5904
▁pocket	-5905
▁smooth	-5906
▁surely	-5907
▁council	-5908
▁sensors	-5909
connected	-5910
▁drinking	-5911
▁involves	-5912
▁organize	-5913
▁provided	-5914
▁smallpox	-5915
▁corporate	-5916
▁commitment	-5917
▁optimistic	-5918
▁surrounded	-5919
▁advertising	-5920
▁populations	-5921
▁dramatically	-5922
wr	-5923
aze	-5924
ria	-5925
▁ol	-5926
aper	-5927
icit	-5928
oons	-5929
your	-5930
▁cab	-5931
▁sar	-5932
osure	-5933
▁flip	-5934
▁glad	-5935
▁pile	-5936
▁rede	-5937
heimer	-5938
▁adopt	-5939
▁datab	-5940
▁naked	-5941
▁score	-5942
▁walks	-5943
▁frozen	-5944
▁narrow	-5945
▁neuron	-5946
▁palest	-5947
▁paraly	-5948
▁toilet	-5949
▁diagram	-5950
▁suicide	-5951
▁tragedy	-5952
▁appeared	-5953
▁attached	-5954
▁facility	-5955
▁reduction	-5956
▁exhibition	-5957
▁disappeared	-5958
▁spectacular	-5959
his	-5960
▁32	-5961
oned	-5962
▁aer	-5963
▁ate	-5964
▁gon	-5965
▁spr	-5966
▁cham	-5967
▁dear	-5968
▁lung	-5969
▁mail	-5970
▁manh	-5971
▁rice	-5972
▁sulf	-5973
anging	-5974
▁laser	-5975
▁links	-5976
▁opens	-5977
▁orbit	-5978
▁willi	-5979
▁behave	-5980
▁border	-5981
▁funded	-5982
▁gender	-5983
▁heaven	-5984
▁powers	-5985
▁refuge	-5986
▁reject	-5987
▁repeat	-5988
▁saturn	-5989
▁suffer	-5990
▁trends	-5991
▁worker	-5992
▁bicycle	-5993
▁concern	-5994
▁dignity	-5995
▁federal	-5996
▁herself	-5997
▁kingdom	-5998
▁millenn	-5999
▁robotic	-6000
▁dynamics	-6001
▁hardware	-6002
▁surfaces	-6003
▁vertical	-6004
ologically	-6005
▁animation	-6006
▁constrain	-6007
▁afterwards	-6008
▁rainforest	-6009
▁ingredients	-6010
▁personality	-6011
▁photography	-6012
▁recognition	-6013
▁sustainability	-6014
aks	-6015
org	-6016
▁22	-6017
char	-6018
elly	-6019
lete	-6020
▁nic	-6021
▁pul	-6022
▁wed	-6023
going	-6024
maker	-6025
▁bold	-6026
▁bull	-6027
▁firm	-6028
▁fool	-6029
▁horm	-6030
▁leap	-6031
▁ours	-6032
▁pref	-6033
father	-6034
▁chaos	-6035
▁chest	-6036
▁conce	-6037
▁hemis	-6038
▁purch	-6039
▁smith	-6040
▁smoke	-6041
▁upset	-6042
▁whist	-6043
iveness	-6044
zheimer	-6045
▁conven	-6046
▁immune	-6047
▁oldest	-6048
▁passen	-6049
▁sweden	-6050
▁distant	-6051
▁entered	-6052
▁muscles	-6053
▁opposed	-6054
▁pushing	-6055
▁pyramid	-6056
▁raising	-6057
▁dinosaur	-6058
▁maintain	-6059
▁manifest	-6060
▁outcomes	-6061
▁speakers	-6062
▁precisely	-6063
▁virtually	-6064
▁governance	-6065
▁demonstrate	-6066
▁agricultural	-6067
▁architectural	-6068
ek	-6069
bar	-6070
ros	-6071
sey	-6072
case	-6073
nded	-6074
▁cas	-6075
▁ros	-6076
▁twe	-6077
arant	-6078
▁beet	-6079
▁cave	-6080
▁cute	-6081
▁kiss	-6082
iation	-6083
▁abund	-6084
▁bless	-6085
▁drawn	-6086
▁pilot	-6087
▁sheep	-6088
▁utter	-6089
▁20,000	-6090
▁crying	-6091
▁facial	-6092
▁farmer	-6093
▁mainly	-6094
▁rescue	-6095
▁thrown	-6096
▁uganda	-6097
▁fortune	-6098
▁illegal	-6099
▁winning	-6100
▁achieved	-6101
▁educated	-6102
▁estimate	-6103
▁focusing	-6104
▁produces	-6105
▁recovery	-6106
▁shooting	-6107
▁alzheimer	-6108
▁destroyed	-6109
▁accessible	-6110
▁reputation	-6111
▁electronics	-6112
▁interacting	-6113
▁represented	-6114
aret	-6115
fall	-6116
oded	-6117
onic	-6118
▁ack	-6119
▁voc	-6120
asive	-6121
riend	-6122
▁acid	-6123
▁enth	-6124
▁rail	-6125
▁rent	-6126
▁rome	-6127
▁viet	-6128
▁angry	-6129
▁antar	-6130
▁crops	-6131
▁fruit	-6132
▁nobel	-6133
▁pound	-6134
▁route	-6135
▁scary	-6136
▁seats	-6137
▁sharp	-6138
▁ultra	-6139
▁usual	-6140
astroph	-6141
imately	-6142
▁arrest	-6143
▁devast	-6144
▁escape	-6145
▁martin	-6146
▁regret	-6147
▁talent	-6148
▁triang	-6149
▁beliefs	-6150
▁exposed	-6151
▁fiction	-6152
▁footage	-6153
▁january	-6154
▁mammals	-6155
▁suspect	-6156
▁welcome	-6157
▁assembly	-6158
▁darkness	-6159
▁overcome	-6160
▁pregnant	-6161
▁reported	-6162
▁backwards	-6163
▁dedicated	-6164
▁musicians	-6165
▁permanent	-6166
▁catastroph	-6167
▁industries	-6168
▁recognized	-6169
▁wheelchair	-6170
▁conversations	-6171
box	-6172
hol	-6173
lad	-6174
each	-6175
emen	-6176
iday	-6177
ione	-6178
kins	-6179
uate	-6180
▁aim	-6181
▁ain	-6182
▁fib	-6183
▁jes	-6184
▁obl	-6185
▁sed	-6186
eries	-6187
eters	-6188
iment	-6189
ingly	-6190
orter	-6191
▁appe	-6192
▁cash	-6193
▁labs	-6194
▁mice	-6195
▁neat	-6196
▁pige	-6197
▁rely	-6198
▁ugly	-6199
▁vacu	-6200
esthes	-6201
▁algae	-6202
▁anger	-6203
▁aside	-6204
▁carol	-6205
▁cyber	-6206
▁guide	-6207
▁legis	-6208
▁likes	-6209
▁schol	-6210
▁sheet	-6211
▁spots	-6212
▁tears	-6213
▁units	-6214
▁vietn	-6215
▁wound	-6216
▁yield	-6217
uration	-6218
▁agency	-6219
▁emphas	-6220
▁expans	-6221
▁hardly	-6222
▁offers	-6223
▁oxford	-6224
▁phrase	-6225
▁sacred	-6226
▁stable	-6227
▁stayed	-6228
children	-6229
▁cheaper	-6230
▁chromos	-6231
▁implant	-6232
▁painful	-6233
▁removed	-6234
basically	-6235
▁engaging	-6236
▁external	-6237
▁football	-6238
▁official	-6239
▁reaching	-6240
▁textbook	-6241
▁conflicts	-6242
▁continues	-6243
▁elsewhere	-6244
▁recommend	-6245
▁synthetic	-6246
▁variation	-6247
▁apparently	-6248
▁contribute	-6249
▁ecosystems	-6250
▁integrated	-6251
▁consequence	-6252
▁discoveries	-6253
▁philanthrop	-6254
▁photographer	-6255
▁vulnerability	-6256
oe	-6257
usi	-6258
rary	-6259
rich	-6260
road	-6261
▁anx	-6262
▁ath	-6263
▁bob	-6264
▁ink	-6265
▁sin	-6266
▁wol	-6267
attan	-6268
▁caps	-6269
▁dump	-6270
▁elev	-6271
▁gore	-6272
▁hire	-6273
▁june	-6274
▁laid	-6275
▁migr	-6276
angers	-6277
arters	-6278
▁cable	-6279
▁congo	-6280
▁distr	-6281
▁guard	-6282
▁jelly	-6283
▁realm	-6284
▁rocks	-6285
▁shirt	-6286
▁skept	-6287
▁spark	-6288
▁stere	-6289
▁tasks	-6290
▁tight	-6291
finally	-6292
▁cheese	-6293
▁diabet	-6294
▁layers	-6295
▁native	-6296
▁signed	-6297
▁silent	-6298
▁sports	-6299
▁clients	-6300
▁consume	-6301
▁diverse	-6302
▁forests	-6303
▁letting	-6304
▁methods	-6305
▁passing	-6306
▁pulling	-6307
▁receive	-6308
▁traject	-6309
▁controls	-6310
▁openness	-6311
▁traveled	-6312
▁algorithm	-6313
▁calculate	-6314
▁hollywood	-6315
▁manhattan	-6316
▁supermark	-6317
▁boundaries	-6318
▁collecting	-6319
▁geographic	-6320
▁volunteers	-6321
ani	-6322
eed	-6323
fit	-6324
top	-6325
war	-6326
list	-6327
▁dow	-6328
agger	-6329
esity	-6330
▁beer	-6331
▁clus	-6332
arency	-6333
▁blank	-6334
▁crick	-6335
▁disag	-6336
▁drove	-6337
▁genoc	-6338
▁peter	-6339
▁reson	-6340
▁stunt	-6341
▁tired	-6342
▁adoles	-6343
▁colony	-6344
▁degrad	-6345
▁fertil	-6346
▁hearts	-6347
▁theore	-6348
▁tribes	-6349
▁vacuum	-6350
▁vagina	-6351
▁anthrop	-6352
▁compell	-6353
▁granted	-6354
▁initial	-6355
▁monitor	-6356
▁session	-6357
▁attribut	-6358
▁conclude	-6359
▁concrete	-6360
▁elephant	-6361
▁includes	-6362
▁colleague	-6363
▁dependent	-6364
▁fascinated	-6365
▁functional	-6366
▁hemisphere	-6367
▁motivation	-6368
▁ridiculous	-6369
▁underground	-6370
▁breakthrough	-6371
▁contemporary	-6372
▁transparency	-6373
▁collaborative	-6374
osc	-6375
uff	-6376
osen	-6377
rect	-6378
rons	-6379
thet	-6380
ture	-6381
uity	-6382
viet	-6383
▁bol	-6384
▁hip	-6385
▁nin	-6386
acing	-6387
amine	-6388
iders	-6389
inson	-6390
stage	-6391
stand	-6392
▁butt	-6393
▁eleg	-6394
▁emer	-6395
▁gram	-6396
▁wand	-6397
▁drill	-6398
▁flour	-6399
▁maxim	-6400
▁minor	-6401
▁pione	-6402
▁50,000	-6403
▁arctic	-6404
▁borrow	-6405
▁chosen	-6406
▁extrem	-6407
▁landed	-6408
▁rwanda	-6409
▁soviet	-6410
▁thirds	-6411
▁angeles	-6412
▁happier	-6413
▁obesity	-6414
▁recover	-6415
▁artistic	-6416
▁diabetes	-6417
▁globally	-6418
▁graphics	-6419
▁imagined	-6420
▁perceive	-6421
▁accidents	-6422
▁privilege	-6423
▁teenagers	-6424
▁earthquake	-6425
▁underlying	-6426
▁probability	-6427
▁expectations	-6428
▁interactions	-6429
▁universities	-6430
▁globalization	-6431
ura	-6432
▁gy	-6433
fast	-6434
illy	-6435
keep	-6436
udes	-6437
▁bug	-6438
▁enh	-6439
▁wid	-6440
oking	-6441
opard	-6442
ribly	-6443
ville	-6444
▁bats	-6445
▁bure	-6446
▁clar	-6447
▁lock	-6448
▁toys	-6449
nology	-6450
▁cryst	-6451
▁finds	-6452
▁moore	-6453
▁nutri	-6454
▁schiz	-6455
▁sixth	-6456
▁subur	-6457
▁tribe	-6458
▁adding	-6459
▁ending	-6460
▁inches	-6461
▁intrig	-6462
▁observ	-6463
▁poster	-6464
▁scenar	-6465
▁shadow	-6466
▁weapon	-6467
▁briefly	-6468
▁efforts	-6469
▁guarant	-6470
▁hanging	-6471
▁picking	-6472
▁regener	-6473
▁sensory	-6474
▁soldier	-6475
▁atlantic	-6476
▁crossing	-6477
▁dialogue	-6478
▁describes	-6479
▁elections	-6480
▁searching	-6481
▁engagement	-6482
▁historical	-6483
▁improvement	-6484
▁predictions	-6485
▁neuroscience	-6486
▁characteristics	-6487
fo	-6488
eda	-6489
gic	-6490
iac	-6491
ida	-6492
ini	-6493
ket	-6494
pal	-6495
▁2,	-6496
rade	-6497
▁lit	-6498
▁tub	-6499
about	-6500
▁biod	-6501
▁tied	-6502
▁tuna	-6503
mitted	-6504
ptions	-6505
utical	-6506
▁bucks	-6507
▁exped	-6508
▁italy	-6509
▁punch	-6510
▁relax	-6511
▁yours	-6512
▁amazon	-6513
▁column	-6514
▁ignore	-6515
▁retire	-6516
▁robust	-6517
▁scales	-6518
▁secure	-6519
▁senior	-6520
▁stages	-6521
▁stores	-6522
▁subtle	-6523
▁automob	-6524
▁electro	-6525
▁instant	-6526
▁symbols	-6527
▁district	-6528
▁policies	-6529
▁schizoph	-6530
▁customers	-6531
▁orchestra	-6532
▁explaining	-6533
▁protecting	-6534
▁treatments	-6535
▁observation	-6536
▁communications	-6537
aws	-6538
▁95	-6539
▁ub	-6540
atar	-6541
cont	-6542
down	-6543
erer	-6544
izar	-6545
▁bin	-6546
▁hub	-6547
▁lux	-6548
▁tes	-6549
▁wet	-6550
▁wra	-6551
alian	-6552
thank	-6553
▁bubb	-6554
▁cott	-6555
▁hier	-6556
▁mate	-6557
▁rose	-6558
▁seek	-6559
athers	-6560
bridge	-6561
▁advoc	-6562
▁chron	-6563
▁glaci	-6564
▁loves	-6565
▁scott	-6566
▁spray	-6567
▁traum	-6568
▁acknow	-6569
▁actors	-6570
▁buried	-6571
▁hungry	-6572
▁killer	-6573
▁margin	-6574
▁microb	-6575
▁missed	-6576
▁struck	-6577
▁volcan	-6578
▁circles	-6579
▁ethical	-6580
▁habitat	-6581
▁liberal	-6582
▁miracle	-6583
aceutical	-6584
▁ethiopia	-6585
▁informed	-6586
▁apartment	-6587
▁depressed	-6588
▁encounter	-6589
▁expanding	-6590
▁highlight	-6591
▁separated	-6592
▁transparent	-6593
▁photographed	-6594
dr	-6595
200	-6596
oir	-6597
icop	-6598
lies	-6599
view	-6600
▁195	-6601
▁aes	-6602
▁ali	-6603
▁lun	-6604
▁orb	-6605
▁sel	-6606
bered	-6607
night	-6608
organ	-6609
rogen	-6610
umber	-6611
▁dive	-6612
▁hans	-6613
▁meal	-6614
▁sole	-6615
apping	-6616
▁aband	-6617
▁burst	-6618
▁gonna	-6619
▁shelf	-6620
erences	-6621
working	-6622
▁anonym	-6623
▁emerge	-6624
▁ethnic	-6625
▁lethal	-6626
▁locked	-6627
▁subway	-6628
▁amongst	-6629
▁persist	-6630
▁protest	-6631
▁pandemic	-6632
▁repeated	-6633
▁daughters	-6634
▁transcend	-6635
▁commission	-6636
▁operations	-6637
▁strategies	-6638
▁cooperation	-6639
▁grandfather	-6640
▁experimental	-6641
▁transmission	-6642
isa	-6643
rie	-6644
zes	-6645
agon	-6646
ails	-6647
apor	-6648
phen	-6649
vest	-6650
▁jam	-6651
flies	-6652
iogen	-6653
itous	-6654
▁adam	-6655
▁bars	-6656
▁orph	-6657
▁outs	-6658
▁sacr	-6659
unning	-6660
▁array	-6661
▁award	-6662
▁bronx	-6663
▁devil	-6664
▁outer	-6665
▁trash	-6666
igation	-6667
ishment	-6668
▁capita	-6669
▁county	-6670
▁distur	-6671
▁fusion	-6672
▁howard	-6673
▁pursue	-6674
▁pushed	-6675
▁recept	-6676
▁shrimp	-6677
▁thresh	-6678
▁trucks	-6679
▁unhapp	-6680
▁emerged	-6681
▁sisters	-6682
▁extended	-6683
▁fabulous	-6684
▁flexible	-6685
▁morality	-6686
▁prostate	-6687
▁shifting	-6688
▁sleeping	-6689
▁announced	-6690
▁cambridge	-6691
▁confident	-6692
▁detection	-6693
▁glamorous	-6694
▁mysterious	-6695
▁programming	-6696
▁schizophren	-6697
▁pharmaceutical	-6698
ras	-6699
ups	-6700
whe	-6701
zan	-6702
ache	-6703
ober	-6704
ulum	-6705
wart	-6706
▁191	-6707
▁dop	-6708
▁tut	-6709
▁unp	-6710
esign	-6711
▁cats	-6712
▁dies	-6713
▁dile	-6714
▁grat	-6715
▁tsun	-6716
before	-6717
izarre	-6718
lessly	-6719
▁audio	-6720
▁banks	-6721
▁dough	-6722
▁edges	-6723
▁holds	-6724
▁kills	-6725
▁opera	-6726
▁sauce	-6727
▁barely	-6728
▁breaks	-6729
▁execut	-6730
▁makers	-6731
▁nurses	-6732
▁produc	-6733
▁analyze	-6734
▁consult	-6735
▁enthusi	-6736
▁graphic	-6737
▁helicop	-6738
▁highway	-6739
▁mapping	-6740
▁methane	-6741
▁reports	-6742
▁revenue	-6743
▁slavery	-6744
ustration	-6745
▁climbing	-6746
▁dominant	-6747
▁figuring	-6748
▁predicted	-6749
▁replicate	-6750
▁threshold	-6751
▁capability	-6752
▁proportion	-6753
▁resilience	-6754
▁computation	-6755
▁constructed	-6756
▁uncertainty	-6757
▁biodiversity	-6758
▁instructions	-6759
▁unbelievable	-6760
..	-6761
ecd	-6762
nat	-6763
▁0.	-6764
▁ko	-6765
lets	-6766
west	-6767
▁boo	-6768
▁doz	-6769
▁lee	-6770
▁vit	-6771
iance	-6772
▁dung	-6773
▁gate	-6774
▁gods	-6775
▁neck	-6776
▁pigs	-6777
▁tone	-6778
encing	-6779
▁dilem	-6780
▁flows	-6781
▁foods	-6782
▁mixed	-6783
▁nurse	-6784
▁paras	-6785
▁parli	-6786
▁phant	-6787
▁proto	-6788
▁threw	-6789
▁tower	-6790
▁views	-6791
angible	-6792
▁clouds	-6793
▁curric	-6794
▁excuse	-6795
▁invite	-6796
▁neural	-6797
▁rarely	-6798
▁recess	-6799
▁served	-6800
▁steven	-6801
esthesia	-6802
▁bizarre	-6803
▁crucial	-6804
▁garbage	-6805
▁hitting	-6806
▁pointed	-6807
▁portion	-6808
▁reminds	-6809
▁rolling	-6810
▁saharan	-6811
▁writers	-6812
▁accepted	-6813
▁confront	-6814
▁criminal	-6815
▁optimism	-6816
▁theories	-6817
▁adventure	-6818
▁airplanes	-6819
▁christian	-6820
▁committed	-6821
▁insurance	-6822
▁positions	-6823
▁discipline	-6824
▁hypothesis	-6825
▁organizing	-6826
▁originally	-6827
▁trajectory	-6828
▁genetically	-6829
▁reconstruct	-6830
▁translation	-6831
▁surprisingly	-6832
bl	-6833
omy	-6834
▁yo	-6835
esis	-6836
ette	-6837
oran	-6838
pled	-6839
▁dub	-6840
attoo	-6841
omics	-6842
▁bend	-6843
▁bias	-6844
▁cord	-6845
▁hind	-6846
▁ipod	-6847
▁stom	-6848
▁suck	-6849
astics	-6850
bruary	-6851
▁dutch	-6852
▁hello	-6853
▁maker	-6854
▁males	-6855
▁memes	-6856
▁nerve	-6857
▁steam	-6858
▁stops	-6859
▁surve	-6860
▁branch	-6861
▁empire	-6862
▁entrop	-6863
▁headed	-6864
▁merely	-6865
▁nonpro	-6866
▁regime	-6867
▁reveal	-6868
▁rhythm	-6869
▁settle	-6870
▁simult	-6871
▁tracks	-6872
▁adopted	-6873
▁comprom	-6874
▁enlight	-6875
▁essence	-6876
▁founded	-6877
▁neander	-6878
▁october	-6879
▁painted	-6880
▁prepare	-6881
▁reduced	-6882
▁serving	-6883
everybody	-6884
▁genocide	-6885
▁incident	-6886
▁inherent	-6887
▁leverage	-6888
▁unlikely	-6889
▁forgotten	-6890
▁intuition	-6891
▁qualities	-6892
▁biologists	-6893
▁determined	-6894
▁parliament	-6895
▁researcher	-6896
▁exponential	-6897
2.	-6898
asy	-6899
ela	-6900
toc	-6901
yet	-6902
▁."	-6903
▁ib	-6904
agos	-6905
ares	-6906
ault	-6907
iban	-6908
wing	-6909
▁ceo	-6910
▁fer	-6911
▁sav	-6912
▁tip	-6913
▁vel	-6914
capes	-6915
ckets	-6916
oding	-6917
tocin	-6918
▁bene	-6919
▁fung	-6920
▁homo	-6921
▁indo	-6922
▁inex	-6923
▁rats	-6924
▁rays	-6925
▁trop	-6926
erable	-6927
ivered	-6928
soever	-6929
umines	-6930
▁agent	-6931
▁amate	-6932
▁arrow	-6933
▁blogs	-6934
▁lifes	-6935
▁owned	-6936
▁tooth	-6937
▁twist	-6938
▁attend	-6939
▁client	-6940
▁jewish	-6941
▁needle	-6942
▁closing	-6943
▁florida	-6944
▁glamour	-6945
▁impacts	-6946
▁involve	-6947
▁promote	-6948
▁taliban	-6949
▁visited	-6950
▁warning	-6951
▁correspo	-6952
▁distingu	-6953
▁dopamine	-6954
▁entering	-6955
▁oxytocin	-6956
▁shopping	-6957
▁wildlife	-6958
▁delivered	-6959
▁excellent	-6960
▁expertise	-6961
▁explosion	-6962
▁immediate	-6963
▁ownership	-6964
▁paralyzed	-6965
▁sentences	-6966
▁volunteer	-6967
▁affordable	-6968
▁engineered	-6969
▁expectancy	-6970
▁impression	-6971
▁initiative	-6972
▁simulation	-6973
▁traditions	-6974
▁translated	-6975
▁whatsoever	-6976
▁successfully	-6977
▁institutional	-6978
▁administration	-6979
1.	-6980
100	-6981
ata	-6982
dam	-6983
ndr	-6984
rid	-6985
izer	-6986
ship	-6987
umin	-6988
walk	-6989
▁20,	-6990
▁egg	-6991
▁ski	-6992
▁spa	-6993
burgh	-6994
erved	-6995
opath	-6996
▁cert	-6997
▁duck	-6998
▁gaps	-6999
▁gear	-7000
▁hors	-7001
▁jugg	-7002
▁lone	-7003
▁mode	-7004
▁sits	-7005
▁summ	-7006
▁tent	-7007
iences	-7008
iotics	-7009
mingly	-7010
nostic	-7011
▁abuse	-7012
▁bears	-7013
▁empow	-7014
▁legit	-7015
▁schem	-7016
▁spill	-7017
▁stair	-7018
▁ubiqu	-7019
▁assess	-7020
▁dozens	-7021
▁export	-7022
▁halluc	-7023
▁sketch	-7024
▁sticks	-7025
▁stroke	-7026
▁tattoo	-7027
▁tumors	-7028
pendence	-7029
▁ceiling	-7030
▁charges	-7031
▁hunting	-7032
▁parties	-7033
▁phantom	-7034
▁prosper	-7035
▁statist	-7036
▁targets	-7037
▁genetics	-7038
▁transmit	-7039
▁biologist	-7040
▁expansion	-7041
▁fortunate	-7042
▁gathering	-7043
▁dictionary	-7044
▁extinction	-7045
▁identified	-7046
▁inevitable	-7047
▁compassionate	-7048
mm	-7049
ov	-7050
vy	-7051
wl	-7052
ari	-7053
bow	-7054
hop	-7055
ora	-7056
▁3.	-7057
agen	-7058
gend	-7059
▁alb	-7060
▁cyl	-7061
▁dys	-7062
▁jet	-7063
▁nam	-7064
▁tam	-7065
▁upd	-7066
aches	-7067
ogram	-7068
rence	-7069
riger	-7070
▁coke	-7071
▁cous	-7072
▁glor	-7073
▁guns	-7074
▁leaf	-7075
▁toss	-7076
ateful	-7077
urable	-7078
▁begun	-7079
▁blame	-7080
▁gotta	-7081
▁inequ	-7082
▁joint	-7083
▁owner	-7084
▁revol	-7085
▁spont	-7086
▁veter	-7087
▁aggreg	-7088
▁cosmic	-7089
▁cycles	-7090
▁domain	-7091
▁newton	-7092
▁pollut	-7093
▁potato	-7094
▁rivers	-7095
▁satisf	-7096
▁turkey	-7097
▁elected	-7098
▁failing	-7099
▁farming	-7100
▁fragile	-7101
▁gallery	-7102
▁imaging	-7103
▁immense	-7104
▁printed	-7105
▁printer	-7106
▁selfish	-7107
▁smarter	-7108
▁speaker	-7109
▁tsunami	-7110
▁connects	-7111
▁february	-7112
▁fraction	-7113
▁geometry	-7114
▁innocent	-7115
▁insights	-7116
▁measures	-7117
▁plastics	-7118
▁refriger	-7119
▁robotics	-7120
▁versions	-7121
▁classical	-7122
▁nutrition	-7123
▁practices	-7124
▁permission	-7125
▁remembered	-7126
▁struggling	-7127
▁assumptions	-7128
▁chimpanzees	-7129
▁restaurants	-7130
▁conservative	-7131
▁representation	-7132
bell	-7133
itan	-7134
wind	-7135
▁lob	-7136
▁loo	-7137
▁luc	-7138
▁mud	-7139
▁ner	-7140
▁nom	-7141
arrhe	-7142
ctica	-7143
gence	-7144
▁acou	-7145
▁boss	-7146
▁dawn	-7147
▁deaf	-7148
▁debt	-7149
▁drum	-7150
▁eval	-7151
▁fest	-7152
▁fits	-7153
▁nick	-7154
▁offs	-7155
▁sink	-7156
▁bored	-7157
▁grace	-7158
▁greek	-7159
▁mayor	-7160
▁weeke	-7161
▁arrive	-7162
▁comedy	-7163
▁decent	-7164
▁formal	-7165
▁garage	-7166
▁jumped	-7167
▁lawyer	-7168
▁motors	-7169
▁richer	-7170
▁silver	-7171
▁waters	-7172
▁affects	-7173
▁chances	-7174
▁compete	-7175
▁contrad	-7176
▁convert	-7177
▁drivers	-7178
▁entropy	-7179
▁fastest	-7180
▁forming	-7181
▁imagery	-7182
▁johnson	-7183
▁magical	-7184
▁paradox	-7185
▁penguin	-7186
▁redwood	-7187
▁restore	-7188
▁uniform	-7189
▁asteroid	-7190
▁attitude	-7191
▁captured	-7192
▁reinvent	-7193
▁reminded	-7194
▁substant	-7195
▁tendency	-7196
▁gentleman	-7197
▁improving	-7198
▁passenger	-7199
▁primarily	-7200
▁primitive	-7201
▁uncomfort	-7202
otechnology	-7203
▁compelling	-7204
▁curriculum	-7205
▁generating	-7206
▁demonstration	-7207
▁interestingly	-7208
vo	-7209
ado	-7210
eng	-7211
rem	-7212
via	-7213
▁ye	-7214
eday	-7215
fram	-7216
ihad	-7217
iped	-7218
olic	-7219
onge	-7220
▁11,	-7221
▁lap	-7222
▁mri	-7223
▁rio	-7224
inter	-7225
lades	-7226
osing	-7227
owing	-7228
▁athe	-7229
▁bind	-7230
▁blah	-7231
▁chim	-7232
▁cree	-7233
▁dumb	-7234
▁eric	-7235
▁infl	-7236
▁junk	-7237
▁leon	-7238
▁logo	-7239
▁tong	-7240
▁tune	-7241
▁buddh	-7242
▁downt	-7243
▁eaten	-7244
▁gorge	-7245
▁intim	-7246
▁jesus	-7247
▁jihad	-7248
▁plain	-7249
▁reefs	-7250
▁shore	-7251
▁silly	-7252
unction	-7253
▁approx	-7254
▁butter	-7255
▁canopy	-7256
▁injury	-7257
▁mining	-7258
▁partly	-7259
▁pigeon	-7260
▁preval	-7261
▁scores	-7262
▁shrink	-7263
▁strike	-7264
▁ticket	-7265
▁upside	-7266
▁widely	-7267
▁citizen	-7268
▁commons	-7269
▁distort	-7270
▁flowing	-7271
▁glasses	-7272
▁suspend	-7273
▁synthes	-7274
▁terrain	-7275
▁unhappy	-7276
▁distract	-7277
▁portrait	-7278
▁reducing	-7279
▁returned	-7280
▁terribly	-7281
▁banglades	-7282
▁conducted	-7283
▁diagnosed	-7284
▁exception	-7285
▁realizing	-7286
▁antarctica	-7287
▁continuous	-7288
▁mechanisms	-7289
▁suggesting	-7290
▁demographic	-7291
▁description	-7292
▁established	-7293
apy	-7294
isy	-7295
ola	-7296
rix	-7297
sec	-7298
▁ja	-7299
▁uh	-7300
abil	-7301
angh	-7302
bits	-7303
chem	-7304
norm	-7305
rian	-7306
▁dun	-7307
▁sty	-7308
ynman	-7309
▁arth	-7310
▁chop	-7311
▁drew	-7312
▁earn	-7313
▁irre	-7314
▁jose	-7315
▁mary	-7316
▁mold	-7317
▁prec	-7318
▁susp	-7319
▁tear	-7320
▁whis	-7321
▁4,000	-7322
▁arist	-7323
▁burea	-7324
▁chips	-7325
▁choir	-7326
▁delhi	-7327
▁marsh	-7328
▁redef	-7329
▁restr	-7330
▁tends	-7331
▁wider	-7332
▁yemen	-7333
▁30,000	-7334
▁builds	-7335
▁carpet	-7336
▁curren	-7337
▁editor	-7338
▁errors	-7339
▁harbor	-7340
▁metric	-7341
▁panels	-7342
▁strain	-7343
▁trains	-7344
▁academy	-7345
▁bottles	-7346
▁colored	-7347
▁destiny	-7348
▁diarrhe	-7349
▁disrupt	-7350
▁located	-7351
▁offices	-7352
▁pretend	-7353
▁seeking	-7354
▁staying	-7355
▁altitude	-7356
▁articles	-7357
▁assemble	-7358
▁clothing	-7359
▁historic	-7360
▁homework	-7361
▁interior	-7362
▁laughing	-7363
▁neurolog	-7364
▁skeleton	-7365
▁biosphere	-7366
▁instantly	-7367
▁protocell	-7368
▁resistant	-7369
▁stability	-7370
▁suggested	-7371
▁wandering	-7372
▁assumption	-7373
▁vegetables	-7374
▁experiencing	-7375
▁grandchildren	-7376
▁simultaneously	-7377
hum	-7378
▁tu	-7379
ague	-7380
cher	-7381
iety	-7382
oids	-7383
onds	-7384
part	-7385
sing	-7386
▁'90	-7387
▁gir	-7388
▁ups	-7389
aving	-7390
chris	-7391
emics	-7392
orage	-7393
ounce	-7394
their	-7395
▁2005	-7396
▁biol	-7397
▁bust	-7398
▁cake	-7399
▁gand	-7400
▁holy	-7401
▁knee	-7402
▁lord	-7403
▁quad	-7404
▁quit	-7405
▁thri	-7406
ughter	-7407
▁brian	-7408
▁grasp	-7409
▁koran	-7410
▁membr	-7411
▁monit	-7412
▁physi	-7413
▁tempt	-7414
▁troub	-7415
angered	-7416
attered	-7417
inarily	-7418
▁diving	-7419
▁handed	-7420
▁insane	-7421
▁perpet	-7422
▁stimul	-7423
▁subsid	-7424
▁unfold	-7425
▁wheels	-7426
▁analogy	-7427
▁arrange	-7428
▁besides	-7429
▁bubbles	-7430
▁courses	-7431
▁ecology	-7432
▁enables	-7433
▁lawyers	-7434
▁pursuit	-7435
▁puzzles	-7436
▁routine	-7437
▁russian	-7438
▁shelter	-7439
▁storage	-7440
▁vietnam	-7441
mentation	-7442
▁database	-7443
▁detailed	-7444
▁grateful	-7445
▁homeless	-7446
▁inventor	-7447
▁magnific	-7448
▁palestin	-7449
▁peaceful	-7450
▁redesign	-7451
▁reliable	-7452
▁surgeons	-7453
▁audiences	-7454
▁deception	-7455
▁gradually	-7456
▁investing	-7457
▁nutrients	-7458
▁performed	-7459
▁physician	-7460
▁supported	-7461
▁capitalism	-7462
▁continuing	-7463
▁difficulty	-7464
▁disappoint	-7465
▁supermarket	-7466
▁capabilities	-7467
▁civilizations	-7468
▁professionals	-7469
▁significantly	-7470
uk	-7471
alf	-7472
che	-7473
enh	-7474
ran	-7475
▁ng	-7476
▁pc	-7477
bird	-7478
cycl	-7479
erey	-7480
icks	-7481
ilit	-7482
▁kar	-7483
▁lam	-7484
▁mah	-7485
▁pip	-7486
▁tie	-7487
▁tox	-7488
▁brid	-7489
▁buff	-7490
▁cass	-7491
▁chat	-7492
▁excl	-7493
▁hipp	-7494
▁hybr	-7495
▁jazz	-7496
▁mild	-7497
▁odds	-7498
▁palm	-7499
▁shit	-7500
anghai	-7501
parent	-7502
preced	-7503
▁cabin	-7504
▁camps	-7505
▁crush	-7506
▁ingen	-7507
▁jones	-7508
▁syndr	-7509
▁treas	-7510
▁viral	-7511
▁caring	-7512
▁cotton	-7513
▁dragon	-7514
▁freely	-7515
▁marvel	-7516
▁multip	-7517
▁occurs	-7518
▁orphan	-7519
▁tanzan	-7520
▁tragic	-7521
▁troops	-7522
secondly	-7523
▁adapted	-7524
▁dressed	-7525
▁engines	-7526
▁enterpr	-7527
▁package	-7528
▁passive	-7529
▁percept	-7530
▁propose	-7531
▁someday	-7532
▁confused	-7533
▁covering	-7534
▁delivery	-7535
▁drawings	-7536
▁preserve	-7537
▁shanghai	-7538
▁shocking	-7539
▁throwing	-7540
▁documents	-7541
▁religions	-7542
▁responses	-7543
precedented	-7544
▁autonomous	-7545
▁biolumines	-7546
▁comparison	-7547
▁endangered	-7548
▁prevention	-7549
▁profoundly	-7550
▁threatened	-7551
▁ubiquitous	-7552
▁participation	-7553
▁uncomfortable	-7554
▁mathematicians	-7555
hy	-7556
ala	-7557
bul	-7558
min	-7559
rol	-7560
▁dv	-7561
crim	-7562
tech	-7563
umes	-7564
▁bos	-7565
▁bot	-7566
▁nap	-7567
▁tib	-7568
▁tin	-7569
▁voy	-7570
clock	-7571
oying	-7572
umble	-7573
▁abra	-7574
▁beij	-7575
▁brut	-7576
▁carl	-7577
▁cows	-7578
▁damn	-7579
▁mike	-7580
▁soup	-7581
▁tale	-7582
▁woke	-7583
icious	-7584
▁ambig	-7585
▁anten	-7586
▁armed	-7587
▁hired	-7588
▁patch	-7589
▁recru	-7590
▁santa	-7591
▁shots	-7592
▁spain	-7593
▁steal	-7594
▁tiles	-7595
▁annual	-7596
▁atomic	-7597
▁basket	-7598
▁burned	-7599
▁comics	-7600
▁fibers	-7601
▁insist	-7602
▁magnet	-7603
▁manual	-7604
▁nerves	-7605
▁planes	-7606
▁relief	-7607
▁tackle	-7608
▁tempor	-7609
▁aggress	-7610
▁beneath	-7611
▁bureauc	-7612
▁cricket	-7613
▁deserve	-7614
▁laptops	-7615
▁reactor	-7616
▁stepped	-7617
▁believes	-7618
▁catching	-7619
▁category	-7620
▁channels	-7621
▁gathered	-7622
▁monterey	-7623
▁musician	-7624
▁presents	-7625
▁scholars	-7626
▁smallest	-7627
▁breakfast	-7628
▁empowered	-7629
▁nonprofit	-7630
▁remaining	-7631
▁signature	-7632
▁attractive	-7633
▁ecological	-7634
▁infections	-7635
▁influenced	-7636
▁terrorists	-7637
▁antibiotics	-7638
▁association	-7639
▁discovering	-7640
▁storytelling	-7641
▁unprecedented	-7642
ati	-7643
ocr	-7644
oll	-7645
ona	-7646
thy	-7647
yan	-7648
▁dh	-7649
▁eb	-7650
▁ly	-7651
▁nu	-7652
aine	-7653
iler	-7654
illa	-7655
neys	-7656
onia	-7657
▁350	-7658
▁cig	-7659
▁fir	-7660
▁fox	-7661
▁hen	-7662
▁zip	-7663
ading	-7664
atson	-7665
chron	-7666
field	-7667
haust	-7668
oning	-7669
power	-7670
stone	-7671
three	-7672
▁bond	-7673
▁bulb	-7674
▁chef	-7675
▁josh	-7676
▁mama	-7677
▁meme	-7678
▁mesh	-7679
▁nuts	-7680
▁rabb	-7681
aneous	-7682
comput	-7683
cyclop	-7684
indeed	-7685
person	-7686
▁artif	-7687
▁badly	-7688
▁blown	-7689
▁comic	-7690
▁elder	-7691
▁elite	-7692
▁gases	-7693
▁girlf	-7694
▁hawai	-7695
▁immun	-7696
▁lingu	-7697
▁marry	-7698
▁panel	-7699
▁peers	-7700
▁ratio	-7701
▁retro	-7702
▁satur	-7703
▁squee	-7704
▁wheat	-7705
▁winds	-7706
▁worms	-7707
titudes	-7708
whether	-7709
▁august	-7710
▁burden	-7711
▁chairs	-7712
▁crowds	-7713
▁ensure	-7714
▁horses	-7715
▁loving	-7716
▁propag	-7717
▁scenes	-7718
▁sunday	-7719
▁watson	-7720
otherapy	-7721
▁barrier	-7722
▁enabled	-7723
▁formula	-7724
▁gesture	-7725
▁italian	-7726
▁neutral	-7727
▁ongoing	-7728
▁trigger	-7729
▁bathroom	-7730
▁circuits	-7731
▁december	-7732
▁downtown	-7733
▁encyclop	-7734
▁exposure	-7735
▁gorgeous	-7736
▁included	-7737
▁precious	-7738
▁predator	-7739
▁replaced	-7740
▁scenario	-7741
▁spinning	-7742
▁collapsed	-7743
▁extension	-7744
▁healthier	-7745
▁infection	-7746
▁intensive	-7747
▁jellyfish	-7748
▁magnitude	-7749
▁obstacles	-7750
▁planetary	-7751
▁procedure	-7752
▁substance	-7753
▁suspended	-7754
▁continents	-7755
▁elementary	-7756
▁facilities	-7757
▁publishing	-7758
▁terrifying	-7759
▁beautifully	-7760
▁philosopher	-7761
▁occasionally	-7762
▁participants	-7763
▁interpretation	-7764
py	-7765
ads	-7766
aid	-7767
bie	-7768
lie	-7769
lim	-7770
pie	-7771
wed	-7772
▁bf	-7773
aded	-7774
coln	-7775
gent	-7776
lson	-7777
quis	-7778
▁dil	-7779
▁ech	-7780
▁gif	-7781
▁huh	-7782
▁jar	-7783
▁pir	-7784
adays	-7785
inals	-7786
pless	-7787
▁ampl	-7788
▁benj	-7789
▁carr	-7790
▁germ	-7791
▁jane	-7792
▁lean	-7793
▁nano	-7794
▁pale	-7795
▁penn	-7796
▁pier	-7797
▁prol	-7798
▁rick	-7799
▁fancy	-7800
▁fires	-7801
▁flick	-7802
▁miner	-7803
▁plank	-7804
▁remix	-7805
▁rings	-7806
▁royal	-7807
▁slums	-7808
▁thumb	-7809
▁wires	-7810
▁andrew	-7811
▁correl	-7812
▁daniel	-7813
▁estate	-7814
▁fought	-7815
▁lowest	-7816
▁sensor	-7817
▁static	-7818
▁stored	-7819
▁traits	-7820
▁unable	-7821
remember	-7822
▁demands	-7823
▁despair	-7824
▁harmful	-7825
▁harness	-7826
▁horizon	-7827
▁indians	-7828
▁lincoln	-7829
▁rethink	-7830
▁retreat	-7831
▁reveals	-7832
▁secrets	-7833
▁shocked	-7834
▁spanish	-7835
▁wealthy	-7836
▁answered	-7837
▁branches	-7838
▁generous	-7839
▁invested	-7840
▁judgment	-7841
▁proposed	-7842
▁purposes	-7843
▁remained	-7844
▁scanning	-7845
▁strongly	-7846
▁suffered	-7847
▁syndrome	-7848
▁abilities	-7849
▁batteries	-7850
▁expecting	-7851
▁factories	-7852
▁initially	-7853
▁mechanics	-7854
▁perceived	-7855
▁phenomena	-7856
▁radically	-7857
▁approaches	-7858
▁assignment	-7859
▁challenged	-7860
▁disability	-7861
▁illustrate	-7862
▁landscapes	-7863
▁variations	-7864
▁achievement	-7865
▁approaching	-7866
▁foundations	-7867
▁intervention	-7868
▁visualization	-7869
4.	-7870
ga	-7871
ki	-7872
gie	-7873
sim	-7874
who	-7875
▁dy	-7876
▁si	-7877
iate	-7878
seen	-7879
viol	-7880
yard	-7881
▁amy	-7882
▁via	-7883
5,000	-7884
arest	-7885
lings	-7886
phony	-7887
rodes	-7888
▁clue	-7889
▁crew	-7890
▁file	-7891
▁ford	-7892
▁genu	-7893
▁glue	-7894
▁hong	-7895
▁nord	-7896
▁toes	-7897
▁urge	-7898
▁ware	-7899
▁wrap	-7900
papers	-7901
uation	-7902
▁2000,	-7903
▁artic	-7904
▁coach	-7905
▁delay	-7906
▁donor	-7907
▁farms	-7908
▁fluct	-7909
▁mcdon	-7910
▁pills	-7911
▁proph	-7912
▁ships	-7913
▁tubes	-7914
▁watts	-7915
ressing	-7916
tending	-7917
▁convey	-7918
▁covers	-7919
▁curves	-7920
▁excess	-7921
▁masses	-7922
▁matrix	-7923
▁murder	-7924
▁orders	-7925
▁parach	-7926
▁recipe	-7927
▁render	-7928
▁shakes	-7929
▁summit	-7930
▁temple	-7931
▁tongue	-7932
▁victim	-7933
▁voting	-7934
▁abraham	-7935
▁anxiety	-7936
▁bedroom	-7937
▁cancers	-7938
▁dilemma	-7939
▁folding	-7940
▁genomes	-7941
▁hardest	-7942
▁locally	-7943
▁onstage	-7944
▁proceed	-7945
▁smoking	-7946
▁stephen	-7947
▁venture	-7948
▁william	-7949
▁accompan	-7950
▁applying	-7951
▁approved	-7952
▁cleaning	-7953
▁complain	-7954
▁earliest	-7955
▁affecting	-7956
▁distances	-7957
▁dominated	-7958
▁emergence	-7959
▁estimates	-7960
▁intensity	-7961
▁locations	-7962
▁medicines	-7963
▁appearance	-7964
▁bangladesh	-7965
▁electrodes	-7966
▁expedition	-7967
▁helicopter	-7968
▁impressive	-7969
▁newspapers	-7970
▁previously	-7971
▁psychopath	-7972
▁reasonable	-7973
▁spacecraft	-7974
▁yourselves	-7975
▁marketplace	-7976
▁neuroscient	-7977
▁predictable	-7978
▁concentrated	-7979
▁humanitarian	-7980
rb	-7981
nis	-7982
oes	-7983
omp	-7984
rey	-7985
▁fi	-7986
▁ll	-7987
▁os	-7988
opic	-7989
▁120	-7990
▁ads	-7991
▁ard	-7992
▁bor	-7993
▁dum	-7994
▁gee	-7995
▁hob	-7996
▁jaw	-7997
▁sna	-7998
aland	-7999
ashed	-8000
break	-8001
cohol	-8002
inery	-8003
women	-8004
▁2050	-8005
▁bags	-8006
▁cany	-8007
▁cape	-8008
▁coat	-8009
▁dood	-8010
▁enem	-8011
▁guid	-8012
▁horr	-8013
▁impl	-8014
▁pitt	-8015
▁sail	-8016
▁seal	-8017
▁seti	-8018
▁ward	-8019
lihood	-8020
romagn	-8021
theast	-8022
▁2009,	-8023
▁alpha	-8024
▁balls	-8025
▁carri	-8026
▁chile	-8027
▁cruel	-8028
▁depos	-8029
▁embry	-8030
▁excit	-8031
▁femin	-8032
▁funds	-8033
▁gross	-8034
▁illum	-8035
▁impul	-8036
▁items	-8037
▁kevin	-8038
▁lever	-8039
▁mines	-8040
▁numer	-8041
▁overl	-8042
▁rehab	-8043
▁shine	-8044
▁shout	-8045
▁stake	-8046
▁stays	-8047
▁supre	-8048
▁swiss	-8049
▁trace	-8050
▁zones	-8051
parents	-8052
▁accent	-8053
▁immers	-8054
▁infant	-8055
▁packed	-8056
▁prince	-8057
▁proven	-8058
▁rubber	-8059
▁stones	-8060
▁uncons	-8061
▁wright	-8062
▁alcohol	-8063
▁aristot	-8064
▁blowing	-8065
▁deliber	-8066
▁educate	-8067
▁feynman	-8068
▁ignored	-8069
▁nonviol	-8070
▁profits	-8071
▁stomach	-8072
▁tension	-8073
▁texting	-8074
▁tissues	-8075
▁agencies	-8076
▁carolina	-8077
▁cartoons	-8078
▁colonies	-8079
▁customer	-8080
▁cylinder	-8081
▁diameter	-8082
▁evolving	-8083
▁failures	-8084
▁improved	-8085
▁isolated	-8086
▁kindness	-8087
▁narrator	-8088
▁pointing	-8089
▁relation	-8090
▁synchron	-8091
▁vaccines	-8092
everything	-8093
▁completed	-8094
▁compounds	-8095
▁delicious	-8096
▁miserable	-8097
▁prisoners	-8098
▁realistic	-8099
▁recession	-8100
▁recycling	-8101
▁sensation	-8102
▁frustrated	-8103
▁likelihood	-8104
▁mainstream	-8105
▁physicists	-8106
▁supporting	-8107
▁competitive	-8108
▁electromagn	-8109
▁expressions	-8110
▁proposition	-8111
▁surrounding	-8112
▁calculations	-8113
▁measurements	-8114
▁philanthropy	-8115
▁transforming	-8116
aby	-8117
cip	-8118
▁kh	-8119
▁ky	-8120
▁mt	-8121
▁ot	-8122
▁oy	-8123
ador	-8124
itar	-8125
pace	-8126
pher	-8127
rist	-8128
▁ell	-8129
▁ibm	-8130
allow	-8131
isons	-8132
▁anat	-8133
▁camb	-8134
▁cuts	-8135
▁dirt	-8136
▁incl	-8137
▁murd	-8138
▁nich	-8139
▁pear	-8140
▁shir	-8141
▁spat	-8142
▁tony	-8143
▁unre	-8144
▁vice	-8145
active	-8146
intend	-8147
makers	-8148
ulsion	-8149
▁camel	-8150
▁divor	-8151
▁doors	-8152
▁drown	-8153
▁fault	-8154
▁herit	-8155
▁incor	-8156
▁index	-8157
▁laure	-8158
▁meals	-8159
▁mimic	-8160
▁minus	-8161
▁param	-8162
▁pause	-8163
▁valid	-8164
forward	-8165
▁arabic	-8166
▁cultiv	-8167
▁intent	-8168
▁rotate	-8169
▁typing	-8170
▁unlock	-8171
▁upload	-8172
▁victor	-8173
▁wooden	-8174
▁200,000	-8175
▁absence	-8176
▁bridges	-8177
▁closest	-8178
▁enemies	-8179
▁genuine	-8180
▁healing	-8181
▁helpful	-8182
▁minimum	-8183
▁patents	-8184
▁scanner	-8185
▁simpler	-8186
▁teaches	-8187
▁threats	-8188
▁accounts	-8189
▁activist	-8190
▁angiogen	-8191
▁artifact	-8192
▁benjamin	-8193
▁dropping	-8194
▁leonardo	-8195
▁nitrogen	-8196
▁offering	-8197
▁overhead	-8198
▁reserves	-8199
▁socially	-8200
▁supplies	-8201
▁tanzania	-8202
▁virginia	-8203
▁headlines	-8204
▁hierarchy	-8205
▁predators	-8206
▁renewable	-8207
▁reproduce	-8208
▁strangers	-8209
▁additional	-8210
▁categories	-8211
▁consistent	-8212
▁convenient	-8213
▁manipulate	-8214
▁prediction	-8215
▁frightening	-8216
▁legislation	-8217
▁limitations	-8218
▁magnificent	-8219
▁unconscious	-8220
▁mathematician	-8221
▁schizophrenia	-8222
▁interconnected	-8223
,'	-8224
3.	-8225
2."	-8226
aud	-8227
gue	-8228
lor	-8229
mod	-8230
oma	-8231
wis	-8232
▁wi	-8233
abul	-8234
alog	-8235
four	-8236
ibri	-8237
oman	-8238
rate	-8239
soon	-8240
usal	-8241
vial	-8242
▁fid	-8243
▁ire	-8244
▁mol	-8245
▁ram	-8246
▁shy	-8247
iated	-8248
icial	-8249
ifice	-8250
ighth	-8251
impse	-8252
oples	-8253
peare	-8254
▁anno	-8255
▁batt	-8256
▁coch	-8257
▁dent	-8258
▁enzy	-8259
▁epis	-8260
▁jung	-8261
▁lamp	-8262
▁loan	-8263
▁ngos	-8264
▁sale	-8265
▁sexy	-8266
▁tedx	-8267
▁thus	-8268
▁unem	-8269
▁unle	-8270
affold	-8271
gments	-8272
tering	-8273
▁aspir	-8274
▁cheat	-8275
▁clint	-8276
▁deals	-8277
▁fever	-8278
▁fried	-8279
▁laden	-8280
▁pairs	-8281
▁safer	-8282
▁barrel	-8283
▁contam	-8284
▁friday	-8285
▁habits	-8286
▁kidney	-8287
▁purple	-8288
▁ritual	-8289
▁summar	-8290
▁surviv	-8291
▁beijing	-8292
▁corrupt	-8293
▁elegant	-8294
▁glimpse	-8295
▁iceland	-8296
▁iranian	-8297
▁landing	-8298
▁officer	-8299
▁origins	-8300
▁peoples	-8301
▁pockets	-8302
▁request	-8303
▁scaling	-8304
▁stewart	-8305
▁teenage	-8306
▁advances	-8307
▁boundary	-8308
▁cellular	-8309
▁contempl	-8310
▁counting	-8311
▁coverage	-8312
▁decrease	-8313
▁diarrhea	-8314
▁listened	-8315
▁scaffold	-8316
▁skeletal	-8317
▁stunning	-8318
▁transist	-8319
▁visually	-8320
▁worrying	-8321
▁amazingly	-8322
▁arguments	-8323
▁correctly	-8324
▁microbial	-8325
▁mosquitos	-8326
▁parkinson	-8327
▁preparing	-8328
▁classrooms	-8329
▁destroying	-8330
▁interviews	-8331
▁prosperity	-8332
▁telescopes	-8333
▁contributed	-8334
▁encouraging	-8335
▁fortunately	-8336
▁shakespeare	-8337
▁technically	-8338
▁historically	-8339
▁installation	-8340
▁psychologist	-8341
▁computational	-8342
▁concentration	-8343
▁controversial	-8344
▁extraordinarily	-8345
pi	-8346
1."	-8347
ema	-8348
imb	-8349
och	-8350
oli	-8351
ste	-8352
▁29	-8353
▁ak	-8354
▁gi	-8355
▁qa	-8356
ctor	-8357
etti	-8358
ilty	-8359
phal	-8360
pond	-8361
rane	-8362
rant	-8363
stit	-8364
▁apr	-8365
▁coc	-8366
▁fis	-8367
▁gad	-8368
▁han	-8369
▁hut	-8370
▁kir	-8371
▁sew	-8372
▁une	-8373
anges	-8374
▁bowl	-8375
▁calm	-8376
▁hint	-8377
▁melt	-8378
▁mini	-8379
▁mood	-8380
▁nove	-8381
▁perm	-8382
▁sake	-8383
▁shoe	-8384
▁sons	-8385
▁symp	-8386
▁welf	-8387
▁whoa	-8388
icient	-8389
▁brows	-8390
▁couch	-8391
▁hills	-8392
▁inher	-8393
▁juven	-8394
▁lobby	-8395
▁longe	-8396
▁lungs	-8397
▁outdo	-8398
▁pants	-8399
▁parks	-8400
▁pride	-8401
▁qaeda	-8402
▁scans	-8403
▁sched	-8404
▁sized	-8405
▁tenth	-8406
▁woods	-8407
▁wrist	-8408
itative	-8409
▁absorb	-8410
▁columb	-8411
▁corals	-8412
▁defend	-8413
▁hunter	-8414
▁namely	-8415
▁rating	-8416
▁recall	-8417
▁sheets	-8418
▁strict	-8419
▁tables	-8420
▁twenty	-8421
▁beating	-8422
▁chamber	-8423
▁clinics	-8424
▁condoms	-8425
▁consent	-8426
▁creator	-8427
▁dancers	-8428
▁halfway	-8429
▁harmony	-8430
▁ireland	-8431
▁possess	-8432
▁profile	-8433
▁readers	-8434
▁reserve	-8435
▁supreme	-8436
▁wedding	-8437
criptions	-8438
▁baseball	-8439
▁choosing	-8440
▁concerns	-8441
▁contrary	-8442
▁intended	-8443
▁managers	-8444
▁mobility	-8445
▁navigate	-8446
▁proposal	-8447
▁survived	-8448
▁unemploy	-8449
▁bacterial	-8450
▁broadcast	-8451
▁commodity	-8452
▁guarantee	-8453
▁installed	-8454
▁longevity	-8455
▁objective	-8456
▁reactions	-8457
▁succeeded	-8458
▁terrorist	-8459
▁undergrad	-8460
▁determines	-8461
▁excitement	-8462
▁narratives	-8463
▁structural	-8464
▁authorities	-8465
▁corporations	-8466
▁independence	-8467
▁communicating	-8468
▁psychologists	-8469
▁straightforward	-8470
gy	-8471
...	-8472
acc	-8473
bia	-8474
ima	-8475
net	-8476
urd	-8477
▁'50	-8478
▁kat	-8479
ilson	-8480
itzer	-8481
storm	-8482
▁bite	-8483
▁buck	-8484
▁crop	-8485
▁cube	-8486
▁ende	-8487
▁fate	-8488
▁frog	-8489
▁july	-8490
▁lion	-8491
▁mumb	-8492
▁myce	-8493
▁neoc	-8494
▁shed	-8495
▁solo	-8496
▁stad	-8497
▁surg	-8498
▁util	-8499
00,000	-8500
▁april	-8501
▁bills	-8502
▁chase	-8503
▁clubs	-8504
▁crows	-8505
▁erect	-8506
▁fatal	-8507
▁ignor	-8508
▁indus	-8509
▁inhab	-8510
▁larry	-8511
▁loose	-8512
▁sends	-8513
▁squid	-8514
▁vivid	-8515
ascular	-8516
▁beaten	-8517
▁binary	-8518
▁config	-8519
▁crimes	-8520
▁deadly	-8521
▁elabor	-8522
▁fallen	-8523
▁flavor	-8524
▁helium	-8525
▁hybrid	-8526
▁iconic	-8527
▁joshua	-8528
▁legend	-8529
▁livest	-8530
▁luxury	-8531
▁marrow	-8532
▁nearby	-8533
▁selves	-8534
▁shifts	-8535
▁speaks	-8536
▁spinal	-8537
▁tasman	-8538
▁winner	-8539
▁worthy	-8540
▁arguing	-8541
▁biomass	-8542
▁clinton	-8543
▁everest	-8544
▁exploit	-8545
▁follows	-8546
▁founder	-8547
▁logical	-8548
▁mandela	-8549
▁mindset	-8550
▁passage	-8551
▁playful	-8552
▁rewards	-8553
▁spreads	-8554
▁staring	-8555
▁strands	-8556
▁strings	-8557
▁trivial	-8558
▁welfare	-8559
▁adoption	-8560
▁breeding	-8561
▁compound	-8562
▁currency	-8563
▁disagree	-8564
▁division	-8565
▁interven	-8566
▁multiply	-8567
▁mutation	-8568
▁touching	-8569
▁administr	-8570
▁agreement	-8571
▁alexander	-8572
▁anonymous	-8573
▁attitudes	-8574
▁believing	-8575
▁competing	-8576
▁favorites	-8577
▁formation	-8578
▁incentive	-8579
▁machinery	-8580
▁mushrooms	-8581
▁platforms	-8582
▁sacrifice	-8583
▁secretary	-8584
▁statistic	-8585
▁surgeries	-8586
▁inevitably	-8587
▁intriguing	-8588
▁medication	-8589
▁regardless	-8590
▁renewables	-8591
▁satellites	-8592
▁sequencing	-8593
▁consciously	-8594
▁devastating	-8595
▁interviewed	-8596
▁journalists	-8597
▁encyclopedia	-8598
▁personalized	-8599
▁neighborhoods	-8600
▁transformative	-8601
bc	-8602
bid	-8603
boy	-8604
een	-8605
gal	-8606
hen	-8607
udi	-8608
▁cd	-8609
▁ku	-8610
chel	-8611
mean	-8612
oral	-8613
pers	-8614
poll	-8615
▁192	-8616
▁gur	-8617
▁obt	-8618
▁tid	-8619
▁usa	-8620
ansas	-8621
asses	-8622
enses	-8623
icked	-8624
mates	-8625
oline	-8626
▁biof	-8627
▁dare	-8628
▁dism	-8629
▁foie	-8630
▁kong	-8631
▁koso	-8632
▁mast	-8633
▁ross	-8634
▁scot	-8635
icking	-8636
mental	-8637
▁2004,	-8638
▁alarm	-8639
▁align	-8640
▁blink	-8641
▁boats	-8642
▁conqu	-8643
▁craig	-8644
▁flock	-8645
▁hopes	-8646
▁immig	-8647
▁jewel	-8648
▁lists	-8649
▁raped	-8650
▁ridge	-8651
▁shred	-8652
▁stead	-8653
▁texts	-8654
itivity	-8655
ometime	-8656
whereas	-8657
▁aliens	-8658
▁amazed	-8659
▁bother	-8660
▁denial	-8661
▁gandhi	-8662
▁nelson	-8663
▁norden	-8664
▁philip	-8665
▁posted	-8666
▁themes	-8667
▁tomato	-8668
▁wishes	-8669
▁cigaret	-8670
▁cocaine	-8671
▁corners	-8672
▁dispers	-8673
▁enjoyed	-8674
▁farther	-8675
▁hopeful	-8676
▁israeli	-8677
▁leather	-8678
▁optical	-8679
▁utterly	-8680
▁calculus	-8681
▁democrat	-8682
▁deployed	-8683
▁equality	-8684
▁honestly	-8685
▁horizont	-8686
▁keyboard	-8687
▁aesthetic	-8688
▁candidate	-8689
▁comparing	-8690
▁electrons	-8691
▁equations	-8692
▁greenland	-8693
▁interrupt	-8694
▁occurring	-8695
▁compromise	-8696
▁correspond	-8697
▁girlfriend	-8698
▁inequality	-8699
▁millimeter	-8700
▁networking	-8701
▁phenomenal	-8702
▁retirement	-8703
▁constraints	-8704
▁corporation	-8705
▁programmers	-8706
▁angiogenesis	-8707
▁grandparents	-8708
▁interventions	-8709
▁accountability	-8710
▁?	-8711
3."	-8712
cha	-8713
fur	-8714
iro	-8715
ker	-8716
lar	-8717
lla	-8718
nik	-8719
nut	-8720
▁33	-8721
▁42	-8722
▁ga	-8723
▁ka	-8724
▁lg	-8725
away	-8726
beat	-8727
born	-8728
fold	-8729
lers	-8730
next	-8731
osph	-8732
outs	-8733
▁jac	-8734
▁joe	-8735
▁kam	-8736
▁kin	-8737
▁kle	-8738
▁por	-8739
▁soc	-8740
abeth	-8741
eding	-8742
ifies	-8743
inger	-8744
onaut	-8745
▁deck	-8746
▁disk	-8747
▁drif	-8748
▁eyed	-8749
▁hamb	-8750
▁heal	-8751
▁jill	-8752
▁lego	-8753
▁mant	-8754
▁rope	-8755
▁scal	-8756
▁ster	-8757
▁tact	-8758
▁tags	-8759
▁turk	-8760
▁vary	-8761
culiar	-8762
uctive	-8763
▁2010,	-8764
▁bench	-8765
▁brook	-8766
▁caves	-8767
▁civic	-8768
▁clips	-8769
▁coinc	-8770
▁drops	-8771
▁entry	-8772
▁freak	-8773
▁indig	-8774
▁inhib	-8775
▁knife	-8776
▁picks	-8777
▁probe	-8778
▁spare	-8779
▁spons	-8780
▁straw	-8781
▁sweep	-8782
ictions	-8783
viously	-8784
▁assets	-8785
▁behold	-8786
▁berlin	-8787
▁cables	-8788
▁claims	-8789
▁copies	-8790
▁kicked	-8791
▁mumbai	-8792
▁psycho	-8793
▁stabil	-8794
▁strand	-8795
▁thread	-8796
▁tunnel	-8797
▁unseen	-8798
▁wilson	-8799
interest	-8800
▁artwork	-8801
▁authors	-8802
▁banking	-8803
▁broader	-8804
▁contest	-8805
▁damaged	-8806
▁exhaust	-8807
▁intrins	-8808
▁lottery	-8809
▁maximum	-8810
▁outrage	-8811
▁privacy	-8812
▁reaches	-8813
▁refugee	-8814
▁resolve	-8815
▁sectors	-8816
▁smiling	-8817
▁zealand	-8818
▁backyard	-8819
▁catholic	-8820
▁disabled	-8821
▁dolphins	-8822
▁findings	-8823
▁literacy	-8824
▁minority	-8825
▁nigerian	-8826
▁november	-8827
▁peculiar	-8828
▁pleasant	-8829
▁revealed	-8830
▁selected	-8831
▁sometime	-8832
▁switched	-8833
▁symphony	-8834
▁teenager	-8835
▁terrific	-8836
▁diplomacy	-8837
▁filmmaker	-8838
▁graduated	-8839
▁integrate	-8840
▁livestock	-8841
▁motivated	-8842
▁portraits	-8843
▁sequences	-8844
▁territory	-8845
▁tolerance	-8846
▁workplace	-8847
▁aggressive	-8848
▁automobile	-8849
▁conceptual	-8850
▁frequently	-8851
▁irrational	-8852
▁millennium	-8853
▁projection	-8854
▁reflection	-8855
▁distinguish	-8856
▁overwhelmed	-8857
▁theoretical	-8858
▁accelerating	-8859
▁accomplished	-8860
▁continuously	-8861
▁demonstrated	-8862
▁temperatures	-8863
9.	-8864
?'	-8865
eu	-8866
mn	-8867
0."	-8868
ena	-8869
gas	-8870
iful	-8871
narr	-8872
▁193	-8873
▁awk	-8874
▁ego	-8875
▁hug	-8876
▁jay	-8877
▁lem	-8878
▁moz	-8879
▁sco	-8880
▁sne	-8881
▁syl	-8882
▁woo	-8883
anged	-8884
ester	-8885
iolet	-8886
izers	-8887
ogens	-8888
quate	-8889
▁alle	-8890
▁beck	-8891
▁beef	-8892
▁coin	-8893
▁mixt	-8894
▁nurt	-8895
▁oven	-8896
▁sett	-8897
▁unve	-8898
inator	-8899
inging	-8900
iously	-8901
normal	-8902
olitan	-8903
▁acids	-8904
▁asian	-8905
▁henry	-8906
▁juice	-8907
▁louis	-8908
▁octop	-8909
▁penal	-8910
▁pulls	-8911
▁surre	-8912
▁voted	-8913
enhagen	-8914
▁40,000	-8915
▁apolog	-8916
▁canyon	-8917
▁cattle	-8918
▁digest	-8919
▁disney	-8920
▁eighth	-8921
▁guilty	-8922
▁metals	-8923
▁pencil	-8924
▁slower	-8925
▁ventil	-8926
narrator	-8927
▁awkward	-8928
▁carries	-8929
▁chronic	-8930
▁compute	-8931
▁confron	-8932
▁cooling	-8933
▁counsel	-8934
▁crossed	-8935
▁doubled	-8936
▁enhance	-8937
▁frontal	-8938
▁heating	-8939
▁mankind	-8940
▁melting	-8941
▁nearest	-8942
▁observe	-8943
▁seattle	-8944
▁sensing	-8945
▁streams	-8946
▁trading	-8947
▁announce	-8948
▁arrested	-8949
▁detector	-8950
▁egyptian	-8951
▁enjoying	-8952
▁helpless	-8953
▁heritage	-8954
▁olympics	-8955
▁prisoner	-8956
▁stereoty	-8957
▁striking	-8958
▁tedtalks	-8959
▁aristotle	-8960
▁celebrity	-8961
▁diagnosis	-8962
▁dictators	-8963
▁estimated	-8964
▁seemingly	-8965
▁vegetable	-8966
▁accelerate	-8967
▁encouraged	-8968
▁monitoring	-8969
▁acknowledge	-8970
▁cooperative	-8971
▁realization	-8972
▁observations	-8973
▁approximately	-8974
▁philosophical	-8975
▁systematically	-8976
5.	-8977
cs	-8978
je	-8979
sa	-8980
hot	-8981
oft	-8982
oto	-8983
vas	-8984
▁3,	-8985
▁55	-8986
aves	-8987
imed	-8988
iots	-8989
ithm	-8990
lium	-8991
oked	-8992
olen	-8993
omic	-8994
ules	-8995
utan	-8996
▁awe	-8997
▁rib	-8998
▁rod	-8999
▁ron	-9000
aters	-9001
atics	-9002
osity	-9003
pring	-9004
▁aims	-9005
▁apps	-9006
▁aunt	-9007
▁beam	-9008
▁blob	-9009
▁crap	-9010
▁cups	-9011
▁dose	-9012
▁fran	-9013
▁geck	-9014
▁pays	-9015
▁peel	-9016
▁rape	-9017
▁subt	-9018
▁torn	-9019
▁verb	-9020
ancing	-9021
arians	-9022
within	-9023
▁brush	-9024
▁crude	-9025
▁cyrus	-9026
▁demos	-9027
▁fence	-9028
▁paste	-9029
▁penet	-9030
▁risky	-9031
▁roofs	-9032
▁saudi	-9033
▁seals	-9034
▁sizes	-9035
▁tibet	-9036
▁yeast	-9037
conduct	-9038
izabeth	-9039
umented	-9040
▁albert	-9041
▁athlet	-9042
▁beetle	-9043
▁campus	-9044
▁casual	-9045
▁compre	-9046
▁donors	-9047
▁foster	-9048
▁gravit	-9049
▁horror	-9050
▁intact	-9051
▁intric	-9052
▁joseph	-9053
▁lifted	-9054
▁mentor	-9055
▁mixing	-9056
▁nights	-9057
▁passes	-9058
▁plates	-9059
▁puppet	-9060
▁retail	-9061
▁revers	-9062
▁singer	-9063
▁spiral	-9064
▁stolen	-9065
▁antenna	-9066
▁captain	-9067
▁congest	-9068
▁dolphin	-9069
▁females	-9070
▁fulfill	-9071
▁hormone	-9072
▁hostile	-9073
▁manager	-9074
▁rituals	-9075
▁segment	-9076
▁seventh	-9077
▁sulfide	-9078
▁technic	-9079
▁texture	-9080
▁trapped	-9081
▁useless	-9082
obviously	-9083
something	-9084
▁acquired	-9085
▁calories	-9086
▁consumed	-9087
▁defining	-9088
▁explicit	-9089
▁gasoline	-9090
▁jonathan	-9091
▁magician	-9092
▁mcdonald	-9093
▁mycelium	-9094
▁nowadays	-9095
▁promised	-9096
▁receptor	-9097
▁unfortun	-9098
▁abundance	-9099
▁eliminate	-9100
▁illusions	-9101
▁implement	-9102
▁investors	-9103
▁parachute	-9104
▁staircase	-9105
▁therapies	-9106
▁universes	-9107
▁witnessed	-9108
▁workforce	-9109
▁accomplish	-9110
▁anesthesia	-9111
▁approached	-9112
▁copenhagen	-9113
▁empowering	-9114
▁friendship	-9115
▁ingredient	-9116
▁physicians	-9117
▁prototypes	-9118
▁remarkably	-9119
▁suggestion	-9120
▁symmetries	-9121
▁translator	-9122
▁composition	-9123
▁frequencies	-9124
▁functioning	-9125
▁integration	-9126
▁authenticity	-9127
▁contributing	-9128
▁significance	-9129
▁hallucinations	-9130
dh	-9131
00,	-9132
ano	-9133
ias	-9134
kin	-9135
oen	-9136
psy	-9137
rit	-9138
▁bm	-9139
▁iv	-9140
asha	-9141
ason	-9142
asty	-9143
bean	-9144
glob	-9145
isan	-9146
ller	-9147
mill	-9148
oric	-9149
teen	-9150
unks	-9151
xual	-9152
▁ari	-9153
▁geo	-9154
▁hmm	-9155
▁jup	-9156
apore	-9157
erior	-9158
inent	-9159
irect	-9160
odied	-9161
▁aged	-9162
▁belt	-9163
▁bosn	-9164
▁bugs	-9165
▁bump	-9166
▁chol	-9167
▁cola	-9168
▁dean	-9169
▁enab	-9170
▁merg	-9171
▁odor	-9172
enance	-9173
ghetti	-9174
itable	-9175
orters	-9176
violet	-9177
▁1,500	-9178
▁2003,	-9179
▁2005,	-9180
▁ambit	-9181
▁bulbs	-9182
▁canad	-9183
▁chore	-9184
▁clues	-9185
▁cream	-9186
▁ethan	-9187
▁float	-9188
▁grave	-9189
▁irony	-9190
▁knock	-9191
▁lewis	-9192
▁lifel	-9193
▁maneu	-9194
▁marks	-9195
▁mobil	-9196
▁offsh	-9197
▁phoen	-9198
▁saint	-9199
▁shops	-9200
▁simul	-9201
▁stamp	-9202
▁strip	-9203
▁sweat	-9204
▁taxes	-9205
▁warri	-9206
without	-9207
▁25,000	-9208
▁apples	-9209
▁arthur	-9210
▁cambod	-9211
▁census	-9212
▁combat	-9213
▁dispos	-9214
▁equals	-9215
▁famine	-9216
▁hambur	-9217
▁hawaii	-9218
▁modest	-9219
▁nightm	-9220
▁prepar	-9221
▁regist	-9222
▁scaled	-9223
▁smells	-9224
▁soccer	-9225
▁sylvia	-9226
▁tagged	-9227
▁topics	-9228
▁traces	-9229
quarters	-9230
▁budgets	-9231
▁envelop	-9232
▁filling	-9233
▁indones	-9234
▁jupiter	-9235
▁olympic	-9236
▁periods	-9237
▁philipp	-9238
▁planned	-9239
▁screens	-9240
▁shining	-9241
▁travels	-9242
▁visions	-9243
▁wrapped	-9244
therlands	-9245
▁accuracy	-9246
▁alphabet	-9247
▁attacked	-9248
▁cheating	-9249
▁expanded	-9250
▁gestures	-9251
▁hopeless	-9252
▁momentum	-9253
▁opinions	-9254
▁priority	-9255
▁protocol	-9256
▁randomly	-9257
▁seawater	-9258
▁simplest	-9259
▁stopping	-9260
▁surgical	-9261
▁thrilled	-9262
▁underest	-9263
▁websites	-9264
▁activated	-9265
▁astronomy	-9266
▁criminals	-9267
▁disasters	-9268
▁elaborate	-9269
▁expressed	-9270
▁receiving	-9271
▁residents	-9272
▁screening	-9273
▁spaghetti	-9274
▁strategic	-9275
▁textbooks	-9276
▁warehouse	-9277
▁adolescent	-9278
▁chromosome	-9279
▁documented	-9280
▁households	-9281
▁privileged	-9282
▁concentrate	-9283
▁investments	-9284
▁palestinian	-9285
▁politically	-9286
▁recognizing	-9287
▁storyteller	-9288
▁ultraviolet	-9289
▁unfortunate	-9290
▁collectively	-9291
▁constitution	-9292
▁contribution	-9293
▁coordination	-9294
▁introduction	-9295
ux	-9296
5."	-9297
bus	-9298
cet	-9299
eds	-9300
iph	-9301
spe	-9302
▁4.	-9303
▁kb	-9304
▁pm	-9305
anas	-9306
bast	-9307
ergy	-9308
igan	-9309
igma	-9310
▁30,	-9311
▁naz	-9312
▁wre	-9313
ensus	-9314
ierra	-9315
matic	-9316
stics	-9317
thals	-9318
▁abed	-9319
▁alas	-9320
▁asth	-9321
▁bert	-9322
▁blur	-9323
▁brad	-9324
▁brun	-9325
▁dick	-9326
▁lith	-9327
▁mask	-9328
▁matt	-9329
▁perv	-9330
▁pond	-9331
▁seam	-9332
▁wore	-9333
▁alike	-9334
▁belly	-9335
▁blast	-9336
▁drunk	-9337
▁ethic	-9338
▁fired	-9339
▁inexp	-9340
▁infra	-9341
▁lanes	-9342
▁lions	-9343
▁loses	-9344
▁milky	-9345
▁naive	-9346
▁poems	-9347
▁respo	-9348
▁simon	-9349
▁tanks	-9350
▁wiped	-9351
faction	-9352
keepers	-9353
ometown	-9354
tically	-9355
▁absurd	-9356
▁agents	-9357
▁alumin	-9358
▁cataly	-9359
▁contra	-9360
▁evapor	-9361
▁format	-9362
▁gained	-9363
▁grains	-9364
▁grocer	-9365
▁guitar	-9366
▁lonely	-9367
▁mammal	-9368
▁manner	-9369
▁metrop	-9370
▁norway	-9371
▁queens	-9372
▁verbal	-9373
▁violin	-9374
although	-9375
▁cholera	-9376
▁deepest	-9377
▁descend	-9378
▁desktop	-9379
▁fantasy	-9380
▁gardens	-9381
▁glacier	-9382
▁hackers	-9383
▁honored	-9384
▁kidding	-9385
▁matched	-9386
▁ordered	-9387
▁phoenix	-9388
▁spatial	-9389
▁stadium	-9390
▁switzer	-9391
▁whoever	-9392
▁intimate	-9393
▁minerals	-9394
▁pipeline	-9395
▁simulate	-9396
▁triangle	-9397
▁visiting	-9398
ographical	-9399
▁activists	-9400
▁ambitious	-9401
▁blueprint	-9402
▁consuming	-9403
▁desperate	-9404
▁magazines	-9405
▁mutations	-9406
▁processor	-9407
▁christians	-9408
▁delivering	-9409
▁practicing	-9410
▁punishment	-9411
▁separation	-9412
▁sufficient	-9413
▁corresponds	-9414
▁desperately	-9415
▁netherlands	-9416
▁revolutions	-9417
▁sensitivity	-9418
▁supercomput	-9419
▁switzerland	-9420
▁symmetrical	-9421
▁transmitted	-9422
▁connectivity	-9423
▁neanderthals	-9424
▁authoritarian	-9425
▁investigation	-9426
40	-9427
yr	-9428
ali	-9429
fly	-9430
iva	-9431
vis	-9432
vol	-9433
wan	-9434
▁ms	-9435
aken	-9436
odyn	-9437
ords	-9438
oton	-9439
▁190	-9440
▁abd	-9441
▁cul	-9442
▁fda	-9443
▁haz	-9444
▁lak	-9445
▁pit	-9446
▁pix	-9447
▁pla	-9448
▁von	-9449
ccoli	-9450
ching	-9451
cribe	-9452
eting	-9453
gency	-9454
otion	-9455
pling	-9456
▁adds	-9457
▁alan	-9458
▁anth	-9459
▁ardu	-9460
▁bern	-9461
▁coca	-9462
▁craw	-9463
▁duty	-9464
▁entr	-9465
▁fier	-9466
▁imit	-9467
▁jord	-9468
▁lawn	-9469
▁marg	-9470
▁milo	-9471
▁prey	-9472
▁vene	-9473
▁worm	-9474
coming	-9475
during	-9476
global	-9477
iances	-9478
ometer	-9479
stairs	-9480
usalem	-9481
▁acute	-9482
▁advis	-9483
▁chunk	-9484
▁codes	-9485
▁fears	-9486
▁feeds	-9487
▁insec	-9488
▁jacqu	-9489
▁loads	-9490
▁manus	-9491
▁messy	-9492
▁morph	-9493
▁obese	-9494
▁patri	-9495
▁pulse	-9496
▁recre	-9497
▁reper	-9498
▁traff	-9499
▁tuned	-9500
ocation	-9501
perhaps	-9502
▁angles	-9503
▁behalf	-9504
▁bullet	-9505
▁chains	-9506
▁copied	-9507
▁copper	-9508
▁dispar	-9509
▁divers	-9510
▁enrich	-9511
▁folded	-9512
▁grades	-9513
▁hurric	-9514
▁johnny	-9515
▁kosovo	-9516
▁preach	-9517
▁safely	-9518
fficient	-9519
▁acquire	-9520
▁affairs	-9521
▁charged	-9522
▁charter	-9523
▁devoted	-9524
▁fingert	-9525
▁heading	-9526
▁luckily	-9527
▁pleased	-9528
▁pouring	-9529
▁premise	-9530
▁pricing	-9531
▁propell	-9532
▁rescued	-9533
▁strikes	-9534
▁acoustic	-9535
▁ancestor	-9536
▁circular	-9537
▁diamonds	-9538
▁founding	-9539
▁friction	-9540
▁glorious	-9541
▁incorpor	-9542
▁intimacy	-9543
▁lifespan	-9544
▁membrane	-9545
▁tangible	-9546
▁tedsters	-9547
▁transact	-9548
▁tropical	-9549
▁variable	-9550
▁youngest	-9551
▁abandoned	-9552
▁addiction	-9553
▁bacterium	-9554
▁bombsight	-9555
▁conductor	-9556
▁consensus	-9557
▁convicted	-9558
▁jerusalem	-9559
▁judgments	-9560
▁kilometer	-9561
▁officials	-9562
▁projected	-9563
▁promoting	-9564
▁reasoning	-9565
▁reflected	-9566
▁reporting	-9567
▁singapore	-9568
▁terrified	-9569
▁celebrated	-9570
▁connectome	-9571
▁disappears	-9572
▁enormously	-9573
▁enterprise	-9574
▁inventions	-9575
▁manuscript	-9576
▁metabolism	-9577
▁politician	-9578
▁professors	-9579
▁responding	-9580
▁sculptures	-9581
▁correlation	-9582
▁documentary	-9583
▁frustration	-9584
▁practically	-9585
▁preparation	-9586
▁progression	-9587
▁republicans	-9588
▁specialized	-9589
▁understands	-9590
▁appreciation	-9591
▁overwhelming	-9592
▁philosophers	-9593
gg	-9594
4."	-9595
bot	-9596
cel	-9597
cin	-9598
kyo	-9599
lon	-9600
rah	-9601
wid	-9602
▁ig	-9603
▁mm	-9604
▁oz	-9605
aint	-9606
anut	-9607
burg	-9608
ched	-9609
city	-9610
rels	-9611
tail	-9612
udge	-9613
▁12,	-9614
▁fog	-9615
▁heh	-9616
▁kit	-9617
▁mcc	-9618
▁wax	-9619
▁yog	-9620
aired	-9621
berry	-9622
inity	-9623
keley	-9624
oters	-9625
ouses	-9626
would	-9627
▁2020	-9628
▁buzz	-9629
▁cale	-9630
▁goat	-9631
▁gran	-9632
▁obso	-9633
▁piss	-9634
▁puff	-9635
▁semi	-9636
▁sher	-9637
▁soap	-9638
▁sput	-9639
▁thor	-9640
▁twin	-9641
▁whit	-9642
ailand	-9643
ladies	-9644
weight	-9645
▁apoll	-9646
▁boost	-9647
▁brick	-9648
▁candy	-9649
▁cares	-9650
▁carib	-9651
▁favel	-9652
▁folds	-9653
▁ghost	-9654
▁hated	-9655
▁kelly	-9656
▁laund	-9657
▁macro	-9658
▁namib	-9659
▁recla	-9660
▁relat	-9661
▁sarah	-9662
▁tiger	-9663
▁trips	-9664
▁tunis	-9665
atories	-9666
thetics	-9667
▁argent	-9668
▁brands	-9669
▁buddha	-9670
▁cracks	-9671
▁dancer	-9672
▁dating	-9673
▁exquis	-9674
▁fundra	-9675
▁graphs	-9676
▁hiding	-9677
▁korean	-9678
▁league	-9679
▁mating	-9680
▁nathan	-9681
▁occupy	-9682
▁peanut	-9683
▁potent	-9684
▁proved	-9685
▁serves	-9686
▁sooner	-9687
▁superh	-9688
▁unfair	-9689
▁upward	-9690
▁virtue	-9691
together	-9692
▁airline	-9693
▁amateur	-9694
▁arduino	-9695
▁atlanta	-9696
▁basking	-9697
▁belongs	-9698
▁cardiac	-9699
▁climbed	-9700
▁columns	-9701
▁counted	-9702
▁diamond	-9703
▁drought	-9704
▁fathers	-9705
▁gallons	-9706
▁heavily	-9707
▁labeled	-9708
▁leopard	-9709
▁linking	-9710
▁monster	-9711
▁octopus	-9712
▁penalty	-9713
▁praying	-9714
▁shaking	-9715
▁shifted	-9716
▁shortly	-9717
▁submers	-9718
▁substit	-9719
▁thermal	-9720
▁upright	-9721
▁worship	-9722
▁abundant	-9723
▁aluminum	-9724
▁broccoli	-9725
▁chapters	-9726
▁diplomat	-9727
▁genomics	-9728
▁hometown	-9729
▁improvis	-9730
▁indicate	-9731
▁infinity	-9732
▁innovate	-9733
▁interpre	-9734
▁outbreak	-9735
▁parasite	-9736
▁pathways	-9737
▁quarters	-9738
▁regional	-9739
▁saturday	-9740
▁sexually	-9741
▁sticking	-9742
▁stranger	-9743
▁talented	-9744
▁temporal	-9745
▁thinkers	-9746
▁associate	-9747
▁attracted	-9748
▁cardboard	-9749
▁collision	-9750
▁converted	-9751
▁embracing	-9752
▁enlighten	-9753
▁parenting	-9754
▁processed	-9755
▁producers	-9756
▁screaming	-9757
▁shoulders	-9758
▁congestion	-9759
▁critically	-9760
▁dependence	-9761
▁horizontal	-9762
▁legitimate	-9763
▁powerpoint	-9764
▁priorities	-9765
▁programmed	-9766
▁calculating	-9767
▁chromosomes	-9768
▁destination	-9769
▁instruction	-9770
▁investigate	-9771
▁maintenance	-9772
▁psychiatric	-9773
▁regulations	-9774
▁substantial	-9775
▁chemotherapy	-9776
▁headquarters	-9777
▁exponentially	-9778
▁entrepreneurial	-9779
ni	-9780
aza	-9781
bag	-9782
cla	-9783
isc	-9784
mes	-9785
mun	-9786
opo	-9787
uch	-9788
▁bh	-9789
▁eu	-9790
inas	-9791
jack	-9792
mony	-9793
play	-9794
plus	-9795
step	-9796
zler	-9797
▁adh	-9798
▁ark	-9799
▁bid	-9800
▁cum	-9801
▁dvd	-9802
▁eru	-9803
▁gel	-9804
▁jun	-9805
▁una	-9806
arded	-9807
human	-9808
raine	-9809
▁blew	-9810
▁cage	-9811
▁carp	-9812
▁cher	-9813
▁cope	-9814
▁crab	-9815
▁ebay	-9816
▁extr	-9817
▁keys	-9818
▁mull	-9819
▁nons	-9820
▁obsc	-9821
▁outl	-9822
▁pent	-9823
▁rect	-9824
▁sang	-9825
▁tort	-9826
▁unst	-9827
▁wins	-9828
▁yard	-9829
▁zimb	-9830
apagos	-9831
iatric	-9832
number	-9833
unting	-9834
vering	-9835
verted	-9836
weeney	-9837
▁album	-9838
▁anecd	-9839
▁bribe	-9840
▁buses	-9841
▁cared	-9842
▁cloth	-9843
▁depri	-9844
▁noisy	-9845
▁panic	-9846
▁pipes	-9847
▁pitts	-9848
▁rains	-9849
▁reass	-9850
▁screw	-9851
▁slope	-9852
▁sucks	-9853
▁sudan	-9854
▁tokyo	-9855
▁veloc	-9856
▁wells	-9857
▁yards	-9858
bastian	-9859
imeters	-9860
section	-9861
umbling	-9862
▁boards	-9863
▁cathed	-9864
▁counts	-9865
▁crafts	-9866
▁dishes	-9867
▁equity	-9868
▁ethics	-9869
▁firing	-9870
▁gallon	-9871
▁julian	-9872
▁nicely	-9873
▁pestic	-9874
▁prayer	-9875
▁racing	-9876
▁riding	-9877
▁submit	-9878
▁truths	-9879
▁warmer	-9880
▁applies	-9881
▁beetles	-9882
▁catalog	-9883
▁chemist	-9884
▁digging	-9885
▁eternal	-9886
▁facilit	-9887
▁generic	-9888
▁grabbed	-9889
▁injured	-9890
▁liberty	-9891
▁montana	-9892
▁pathway	-9893
▁prostit	-9894
▁reviews	-9895
▁rosling	-9896
▁shelves	-9897
▁spiders	-9898
▁talents	-9899
▁telecom	-9900
▁teszler	-9901
▁transit	-9902
▁trusted	-9903
▁vitamin	-9904
▁wonders	-9905
▁actively	-9906
▁annivers	-9907
▁berkeley	-9908
▁buddhist	-9909
▁canadian	-9910
▁comments	-9911
▁deciding	-9912
▁exploded	-9913
▁feminist	-9914
▁forecast	-9915
▁frontier	-9916
▁hormones	-9917
▁humility	-9918
▁infrared	-9919
▁juvenile	-9920
▁lectures	-9921
▁ministry	-9922
▁nonsense	-9923
▁obsolete	-9924
▁operates	-9925
▁persuade	-9926
▁plankton	-9927
▁sidewalk	-9928
▁assembled	-9929
▁breakdown	-9930
▁contained	-9931
▁democrats	-9932
▁emphasize	-9933
▁galapagos	-9934
▁responded	-9935
▁visualize	-9936
▁accumulate	-9937
▁anticipate	-9938
▁assistance	-9939
▁candidates	-9940
▁chimpanzee	-9941
▁diagnostic	-9942
▁disconnect	-9943
▁intentions	-9944
▁prevalence	-9945
▁preventing	-9946
▁propaganda	-9947
▁systematic	-9948
▁dragonflies	-9949
▁embarrassed	-9950
▁implemented	-9951
▁replacement	-9952
▁statistical	-9953
▁disappearing	-9954
▁economically	-9955
▁embarrassing	-9956
▁prescription	-9957
▁superconduct	-9958
▁electromagnetic	-9959
ew	-9960
ju	-9961
pm	-9962
zi	-9963
sud	-9964
urf	-9965
▁ny	-9966
alay	-9967
aust	-9968
bees	-9969
nedy	-9970
olas	-9971
ptic	-9972
rose	-9973
same	-9974
▁"19	-9975
▁blo	-9976
▁cad	-9977
▁cod	-9978
▁exh	-9979
▁inn	-9980
▁jur	-9981
▁mun	-9982
▁osc	-9983
▁pav	-9984
▁pou	-9985
▁rap	-9986
▁reh	-9987
▁tod	-9988
▁vin	-9989
angle	-9990
arten	-9991
brush	-9992
ength	-9993
heads	-9994
ordon	-9995
roots	-9996
▁1930	-9997
▁belo	-9998
▁bore	-9999
▁curt	-10000
▁dens	-10001
▁dome	-10002
▁eats	-10003
▁gosh	-10004
▁grim	-10005
▁lips	-10006
▁mash	-10007
▁reck	-10008
▁thro	-10009
ements	-10010
estone	-10011
ibrium	-10012
opardy	-10013
▁acres	-10014
▁arena	-10015
▁bonob	-10016
▁chess	-10017
▁decor	-10018
▁divid	-10019
▁dread	-10020
▁dwell	-10021
▁epiph	-10022
▁equil	-10023
▁frogs	-10024
▁gecko	-10025
▁incub	-10026
▁julia	-10027
▁keith	-10028
▁leban	-10029
▁lexic	-10030
▁nodes	-10031
▁petro	-10032
▁regul	-10033
▁rises	-10034
▁sands	-10035
▁slice	-10036
▁snake	-10037
▁wavel	-10038
natural	-10039
▁12,000	-10040
▁calend	-10041
▁condom	-10042
▁contag	-10043
▁criter	-10044
▁divine	-10045
▁exotic	-10046
▁gordon	-10047
▁marker	-10048
▁preced	-10049
▁reader	-10050
▁scroll	-10051
▁shoots	-10052
▁sierra	-10053
▁snakes	-10054
▁submar	-10055
▁timing	-10056
▁towers	-10057
▁treaty	-10058
▁tricky	-10059
▁wasted	-10060
breaking	-10061
everyone	-10062
function	-10063
restrial	-10064
standing	-10065
▁150,000	-10066
▁buttons	-10067
▁committ	-10068
▁compreh	-10069
▁default	-10070
▁earning	-10071
▁episode	-10072
▁ethanol	-10073
▁exhibit	-10074
▁grocery	-10075
▁happily	-10076
▁himalay	-10077
▁impulse	-10078
▁kennedy	-10079
▁laughed	-10080
▁markers	-10081
▁mixture	-10082
▁needles	-10083
▁rockets	-10084
▁shorter	-10085
▁sputnik	-10086
▁squares	-10087
▁touches	-10088
▁utility	-10089
▁wolfram	-10090
▁autonomy	-10091
▁barriers	-10092
▁brooklyn	-10093
▁checking	-10094
▁chickens	-10095
▁destruct	-10096
▁displays	-10097
▁endeavor	-10098
▁festival	-10099
▁injuries	-10100
▁juggling	-10101
▁motivate	-10102
▁observed	-10103
▁offshore	-10104
▁oriented	-10105
▁prospect	-10106
▁reactors	-10107
▁recycled	-10108
▁targeted	-10109
▁thailand	-10110
▁answering	-10111
▁artifacts	-10112
▁attacking	-10113
▁blindness	-10114
▁elephants	-10115
▁generates	-10116
▁geography	-10117
▁hurricane	-10118
▁indicates	-10119
▁indonesia	-10120
▁libraries	-10121
▁mysteries	-10122
▁overnight	-10123
▁precision	-10124
▁regularly	-10125
▁skeptical	-10126
▁tedglobal	-10127
▁temporary	-10128
forestation	-10129
▁adaptation	-10130
▁addressing	-10131
▁describing	-10132
▁enthusiasm	-10133
▁infectious	-10134
▁inherently	-10135
▁microphone	-10136
▁presenting	-10137
▁prosthetic	-10138
▁republican	-10139
▁sanitation	-10140
▁wavelength	-10141
▁adolescence	-10142
▁celebration	-10143
▁disciplines	-10144
▁distinction	-10145
▁emotionally	-10146
▁equilibrium	-10147
▁eradication	-10148
▁flexibility	-10149
▁microscopic	-10150
▁nonetheless	-10151
▁stimulation	-10152
▁catastrophic	-10153
▁laboratories	-10154
▁nevertheless	-10155
▁perspectives	-10156
▁presidential	-10157
▁representing	-10158
▁reproduction	-10159
▁satisfaction	-10160
▁manufacturers	-10161
bf	-10162
ko	-10163
300	-10164
cod	-10165
ila	-10166
jan	-10167
syl	-10168
udd	-10169
▁43	-10170
▁jh	-10171
▁vo	-10172
agan	-10173
alia	-10174
bbit	-10175
eren	-10176
fare	-10177
ican	-10178
lesh	-10179
luck	-10180
mass	-10181
mate	-10182
nett	-10183
oven	-10184
zuel	-10185
▁130	-10186
▁ade	-10187
▁hay	-10188
▁kim	-10189
▁unw	-10190
▁viv	-10191
actic	-10192
conds	-10193
enous	-10194
ermen	-10195
opian	-10196
sored	-10197
third	-10198
vania	-10199
whate	-10200
width	-10201
▁beds	-10202
▁chin	-10203
▁dave	-10204
▁dere	-10205
▁hars	-10206
▁jews	-10207
▁kite	-10208
▁narc	-10209
▁rust	-10210
▁scra	-10211
▁slum	-10212
▁stir	-10213
▁toll	-10214
▁trek	-10215
▁tues	-10216
boards	-10217
iments	-10218
ograms	-10219
rogram	-10220
rontal	-10221
▁arbit	-10222
▁daddy	-10223
▁danny	-10224
▁fungi	-10225
▁gains	-10226
▁hairs	-10227
▁hoped	-10228
▁incom	-10229
▁incon	-10230
▁jumps	-10231
▁moder	-10232
▁parag	-10233
▁pumps	-10234
▁resur	-10235
▁rover	-10236
▁sells	-10237
▁suits	-10238
▁susan	-10239
▁taboo	-10240
▁towns	-10241
ulative	-10242
▁abroad	-10243
▁alaska	-10244
▁allies	-10245
▁appeal	-10246
▁arabia	-10247
▁avatar	-10248
▁bloody	-10249
▁bypass	-10250
▁canvas	-10251
▁cockro	-10252
▁cosmos	-10253
▁empath	-10254
▁erotic	-10255
▁filmed	-10256
▁injust	-10257
▁losses	-10258
▁mapped	-10259
▁minded	-10260
▁monday	-10261
▁mutual	-10262
▁portug	-10263
▁precip	-10264
▁raises	-10265
▁scheme	-10266
▁statue	-10267
▁steady	-10268
▁trauma	-10269
▁triple	-10270
▁wiring	-10271
▁wished	-10272
aggering	-10273
ographer	-10274
whatever	-10275
▁charlie	-10276
▁checked	-10277
▁cluster	-10278
▁crashes	-10279
▁derived	-10280
▁discrim	-10281
▁endless	-10282
▁illiter	-10283
▁longest	-10284
▁mexican	-10285
▁monsoon	-10286
▁posters	-10287
▁richest	-10288
▁shepher	-10289
▁strains	-10290
▁thereby	-10291
▁tuesday	-10292
▁weekend	-10293
▁activate	-10294
▁adaptive	-10295
▁baseline	-10296
▁blogging	-10297
▁champion	-10298
▁clusters	-10299
▁colorful	-10300
▁columbia	-10301
▁memorial	-10302
▁passions	-10303
▁reviewed	-10304
▁treasure	-10305
▁velocity	-10306
▁venezuel	-10307
▁accepting	-10308
▁achieving	-10309
▁afterward	-10310
▁analyzing	-10311
▁augmented	-10312
▁bandwidth	-10313
▁champions	-10314
▁elizabeth	-10315
▁humankind	-10316
▁imagining	-10317
▁integrity	-10318
▁involving	-10319
▁millennia	-10320
▁observing	-10321
▁obsession	-10322
▁variables	-10323
▁convincing	-10324
▁disturbing	-10325
▁fertilizer	-10326
▁fingertips	-10327
▁generosity	-10328
▁grassroots	-10329
▁imperative	-10330
▁pittsburgh	-10331
▁prefrontal	-10332
▁accompanied	-10333
▁anniversary	-10334
▁astronomers	-10335
▁considering	-10336
▁researching	-10337
▁transported	-10338
interestingly	-10339
▁alternatives	-10340
▁demonstrates	-10341
▁revolutionary	-10342
▁scientifically	-10343
ev	-10344
9."	-10345
ava	-10346
did	-10347
gro	-10348
uba	-10349
▁iq	-10350
▁pi	-10351
▁uk	-10352
aser	-10353
bris	-10354
fire	-10355
flow	-10356
good	-10357
leep	-10358
neum	-10359
omed	-10360
only	-10361
uels	-10362
vide	-10363
▁450	-10364
▁50,	-10365
▁ape	-10366
▁bib	-10367
▁esp	-10368
▁gag	-10369
▁hoo	-10370
▁hyp	-10371
▁kur	-10372
▁ngo	-10373
▁pel	-10374
▁pic	-10375
▁zoo	-10376
arial	-10377
denly	-10378
grade	-10379
oster	-10380
piece	-10381
stein	-10382
until	-10383
watch	-10384
▁calc	-10385
▁cort	-10386
▁deci	-10387
▁folk	-10388
▁leak	-10389
▁lump	-10390
▁orth	-10391
▁rank	-10392
▁tect	-10393
▁tink	-10394
▁unco	-10395
except	-10396
istine	-10397
rained	-10398
rather	-10399
umbled	-10400
▁alert	-10401
▁banjo	-10402
▁barry	-10403
▁boots	-10404
▁brave	-10405
▁crank	-10406
▁crust	-10407
▁deple	-10408
▁firms	-10409
▁limbs	-10410
▁pearl	-10411
▁revel	-10412
▁roman	-10413
▁snaps	-10414
▁stare	-10415
▁tales	-10416
▁towel	-10417
abulary	-10418
▁addict	-10419
▁argues	-10420
▁beside	-10421
▁brutal	-10422
▁corrid	-10423
▁debris	-10424
▁defect	-10425
▁emails	-10426
▁guards	-10427
▁hugely	-10428
▁humble	-10429
▁imagin	-10430
▁immort	-10431
▁insert	-10432
▁marath	-10433
▁mature	-10434
▁oyster	-10435
▁powder	-10436
▁refuse	-10437
▁rolled	-10438
▁sahara	-10439
▁sovere	-10440
▁storms	-10441
▁sulfur	-10442
▁supple	-10443
▁viable	-10444
▁waited	-10445
▁washed	-10446
suddenly	-10447
sylvania	-10448
▁assumed	-10449
▁babbage	-10450
▁censors	-10451
▁coastal	-10452
▁confess	-10453
▁copying	-10454
▁deficit	-10455
▁elderly	-10456
▁exagger	-10457
▁expense	-10458
▁fossils	-10459
▁francis	-10460
▁greatly	-10461
▁jewelry	-10462
▁lighter	-10463
▁neglect	-10464
▁nurture	-10465
▁ranging	-10466
▁reforms	-10467
▁secular	-10468
▁slowing	-10469
▁summary	-10470
▁viewing	-10471
according	-10472
meanwhile	-10473
▁ambition	-10474
▁analyzed	-10475
▁balanced	-10476
▁basement	-10477
▁biofuels	-10478
▁bureaucr	-10479
▁cambodia	-10480
▁centered	-10481
▁climbers	-10482
▁deserves	-10483
▁enabling	-10484
▁entrance	-10485
▁flourish	-10486
▁happiest	-10487
▁headline	-10488
▁informal	-10489
▁jeopardy	-10490
▁managing	-10491
▁mentally	-10492
▁modeling	-10493
▁portable	-10494
▁rejected	-10495
▁revenues	-10496
▁sections	-10497
▁shipping	-10498
▁supports	-10499
▁symbolic	-10500
▁demograph	-10501
▁fishermen	-10502
▁illnesses	-10503
▁injustice	-10504
▁jefferson	-10505
▁migration	-10506
▁negotiate	-10507
▁packaging	-10508
▁pressures	-10509
▁promising	-10510
▁replacing	-10511
▁sequenced	-10512
▁superhero	-10513
▁surviving	-10514
▁tasmanian	-10515
▁confronted	-10516
▁disgusting	-10517
▁indigenous	-10518
▁profitable	-10519
▁reasonably	-10520
▁recognizes	-10521
▁regulation	-10522
▁staggering	-10523
▁circulation	-10524
▁collaborate	-10525
▁controversy	-10526
▁inexpensive	-10527
▁reinventing	-10528
▁biologically	-10529
▁improvements	-10530
▁metropolitan	-10531
▁partnerships	-10532
▁pennsylvania	-10533
▁enlightenment	-10534
▁environmentally	-10535
kb	-10536
tz	-10537
ili	-10538
low	-10539
mia	-10540
ods	-10541
oth	-10542
zzy	-10543
▁31	-10544
▁tb	-10545
bone	-10546
cium	-10547
etal	-10548
isha	-10549
qual	-10550
rend	-10551
rypt	-10552
turn	-10553
▁125	-10554
▁202	-10555
▁abu	-10556
▁cer	-10557
▁cyn	-10558
▁dal	-10559
▁dod	-10560
▁eco	-10561
▁gor	-10562
▁nov	-10563
▁piz	-10564
▁rum	-10565
▁sha	-10566
▁soy	-10567
alore	-10568
aurus	-10569
essim	-10570
iotic	-10571
ivals	-10572
still	-10573
tends	-10574
thood	-10575
video	-10576
woman	-10577
▁2001	-10578
▁bunk	-10579
▁edit	-10580
▁fame	-10581
▁glow	-10582
▁greg	-10583
▁impr	-10584
▁inqu	-10585
▁lane	-10586
▁mead	-10587
▁oops	-10588
▁porn	-10589
▁pose	-10590
▁rena	-10591
▁rend	-10592
▁slip	-10593
▁slog	-10594
▁sper	-10595
▁stam	-10596
▁ties	-10597
▁tips	-10598
around	-10599
atible	-10600
itated	-10601
please	-10602
▁2001,	-10603
▁arise	-10604
▁arous	-10605
▁asset	-10606
▁basin	-10607
▁bruce	-10608
▁carne	-10609
▁cheet	-10610
▁doses	-10611
▁elbow	-10612
▁entit	-10613
▁escap	-10614
▁fails	-10615
▁fairy	-10616
▁flesh	-10617
▁flush	-10618
▁holoc	-10619
▁jokes	-10620
▁kidna	-10621
▁loans	-10622
▁loyal	-10623
▁meets	-10624
▁midst	-10625
▁mutil	-10626
▁pneum	-10627
▁rigid	-10628
▁riots	-10629
▁roles	-10630
▁sheer	-10631
▁siber	-10632
▁spike	-10633
▁steep	-10634
▁votes	-10635
eration	-10636
illance	-10637
version	-10638
▁15,000	-10639
▁ambass	-10640
▁apollo	-10641
▁asleep	-10642
▁assure	-10643
▁bosnia	-10644
▁candle	-10645
▁checks	-10646
▁chimps	-10647
▁circul	-10648
▁cookie	-10649
▁courts	-10650
▁cousin	-10651
▁falcon	-10652
▁hooked	-10653
▁learns	-10654
▁luther	-10655
▁norman	-10656
▁orgasm	-10657
▁pessim	-10658
▁presum	-10659
▁rachel	-10660
▁radius	-10661
▁server	-10662
▁solemn	-10663
▁sticky	-10664
▁viewed	-10665
▁walker	-10666
▁weighs	-10667
changing	-10668
ergarten	-10669
▁appoint	-10670
▁babylon	-10671
▁blessed	-10672
▁bluefin	-10673
▁browser	-10674
▁caltech	-10675
▁chaotic	-10676
▁chasing	-10677
▁clarity	-10678
▁cousins	-10679
▁cracked	-10680
▁curator	-10681
▁emerges	-10682
▁equator	-10683
▁examine	-10684
▁filters	-10685
▁handful	-10686
▁jackson	-10687
▁justify	-10688
▁lasting	-10689
▁mastery	-10690
▁minimal	-10691
▁mirrors	-10692
▁notions	-10693
▁novelty	-10694
▁nucleus	-10695
▁planted	-10696
▁quietly	-10697
▁regrets	-10698
▁returns	-10699
▁rhythms	-10700
▁sadness	-10701
▁scanned	-10702
▁singers	-10703
▁surveys	-10704
▁sweeney	-10705
▁tickets	-10706
▁wounded	-10707
ationally	-10708
istically	-10709
▁abnormal	-10710
▁composed	-10711
▁confined	-10712
▁declared	-10713
▁delivers	-10714
▁doubling	-10715
▁elevator	-10716
▁envision	-10717
▁explored	-10718
▁famously	-10719
▁freezing	-10720
▁glaciers	-10721
▁hypothes	-10722
▁obstacle	-10723
▁operated	-10724
▁paradise	-10725
▁planting	-10726
▁producer	-10727
▁promises	-10728
▁reflects	-10729
▁refugees	-10730
▁secondly	-10731
▁vacation	-10732
▁veterans	-10733
▁williams	-10734
ifications	-10735
▁aggregate	-10736
▁bangalore	-10737
▁brazilian	-10738
▁caribbean	-10739
▁countless	-10740
▁delighted	-10741
▁finishing	-10742
▁fragments	-10743
▁galleries	-10744
▁historian	-10745
▁injection	-10746
▁instances	-10747
▁nightmare	-10748
▁nurturing	-10749
▁offspring	-10750
▁pervasive	-10751
▁preserved	-10752
▁principal	-10753
▁resilient	-10754
▁sebastian	-10755
▁secondary	-10756
▁similarly	-10757
▁successes	-10758
▁summarize	-10759
▁analytical	-10760
▁apartments	-10761
▁beneficial	-10762
▁developers	-10763
▁discussing	-10764
▁divergence	-10765
▁frightened	-10766
▁interfaces	-10767
▁invitation	-10768
▁nonviolent	-10769
▁parameters	-10770
▁predicting	-10771
▁quantities	-10772
▁relativity	-10773
▁statements	-10774
▁supportive	-10775
▁vocabulary	-10776
▁destructive	-10777
▁discussions	-10778
▁operational	-10779
▁rainforests	-10780
▁spontaneous	-10781
▁conditioning	-10782
▁explanations	-10783
▁kindergarten	-10784
▁gravitational	-10785
▁characteristic	-10786
▁representative	-10787
▁bioluminescence	-10788
bye	-10789
dad	-10790
egr	-10791
idi	-10792
nob	-10793
occ	-10794
pol	-10795
raz	-10796
vet	-10797
yer	-10798
zer	-10799
▁zo	-10800
alie	-10801
arly	-10802
bery	-10803
bine	-10804
coal	-10805
ctar	-10806
eman	-10807
eted	-10808
etts	-10809
girl	-10810
hand	-10811
hips	-10812
iggs	-10813
lear	-10814
mart	-10815
olar	-10816
pack	-10817
rans	-10818
uted	-10819
▁1.2	-10820
▁10.	-10821
▁15,	-10822
▁arc	-10823
▁aur	-10824
▁bog	-10825
▁caf	-10826
▁daw	-10827
▁mum	-10828
▁sib	-10829
▁sob	-10830
achus	-10831
apses	-10832
arium	-10833
being	-10834
ceton	-10835
gthen	-10836
ibera	-10837
idesp	-10838
never	-10839
▁1900	-10840
▁acre	-10841
▁bulg	-10842
▁dall	-10843
▁dian	-10844
▁evan	-10845
▁grey	-10846
▁heck	-10847
▁lure	-10848
▁menu	-10849
▁moth	-10850
▁oecd	-10851
▁sque	-10852
▁watt	-10853
ignant	-10854
integr	-10855
irling	-10856
master	-10857
ortion	-10858
racies	-10859
really	-10860
strong	-10861
▁agile	-10862
▁alter	-10863
▁altru	-10864
▁ambul	-10865
▁avian	-10866
▁bonds	-10867
▁bonus	-10868
▁chalk	-10869
▁draws	-10870
▁epile	-10871
▁excer	-10872
▁exerc	-10873
▁forum	-10874
▁germs	-10875
▁gifts	-10876
▁glory	-10877
▁harry	-10878
▁hatch	-10879
▁insul	-10880
▁kings	-10881
▁lemon	-10882
▁lined	-10883
▁linux	-10884
▁merch	-10885
▁nasty	-10886
▁occas	-10887
▁qatar	-10888
▁recur	-10889
▁relie	-10890
▁ruins	-10891
▁spine	-10892
▁tesla	-10893
▁wrink	-10894
acities	-10895
alities	-10896
balance	-10897
holders	-10898
inburgh	-10899
iratory	-10900
issance	-10901
osexual	-10902
▁asthma	-10903
▁balcon	-10904
▁ballet	-10905
▁banned	-10906
▁earned	-10907
▁expose	-10908
▁floors	-10909
▁forbid	-10910
▁frames	-10911
▁hatred	-10912
▁helmet	-10913
▁jungle	-10914
▁lately	-10915
▁lester	-10916
▁loaded	-10917
▁louder	-10918
▁marked	-10919
▁misery	-10920
▁nectar	-10921
▁pedest	-10922
▁salary	-10923
▁scarce	-10924
▁speeds	-10925
▁toxins	-10926
▁tribal	-10927
▁update	-10928
▁voters	-10929
▁warren	-10930
▁widesp	-10931
intended	-10932
lessness	-10933
▁anatomy	-10934
▁anytime	-10935
▁aquatic	-10936
▁archive	-10937
▁barrels	-10938
▁beloved	-10939
▁blocked	-10940
▁cabinet	-10941
▁calcium	-10942
▁crystal	-10943
▁desires	-10944
▁dismiss	-10945
▁divorce	-10946
▁flights	-10947
▁forgive	-10948
▁honesty	-10949
▁humming	-10950
▁laundry	-10951
▁literal	-10952
▁masters	-10953
▁matches	-10954
▁namibia	-10955
▁natasha	-10956
▁needing	-10957
▁outdoor	-10958
▁pioneer	-10959
▁placebo	-10960
▁reclaim	-10961
▁sailing	-10962
▁shipped	-10963
▁torture	-10964
▁whisper	-10965
achusetts	-10966
▁attempts	-10967
▁ceremony	-10968
▁clapping	-10969
▁commerce	-10970
▁composer	-10971
▁contents	-10972
▁criteria	-10973
▁degraded	-10974
▁detected	-10975
▁explores	-10976
▁impaired	-10977
▁lawrence	-10978
▁maneuver	-10979
▁michigan	-10980
▁mustache	-10981
▁numerous	-10982
▁potatoes	-10983
▁prolifer	-10984
▁purchase	-10985
▁railroad	-10986
▁releases	-10987
▁resident	-10988
▁singular	-10989
▁uniquely	-10990
▁asteroids	-10991
▁astronaut	-10992
▁cellphone	-10993
▁container	-10994
▁eradicate	-10995
▁fisheries	-10996
▁ignorance	-10997
▁ingenuity	-10998
▁lightning	-10999
▁mythology	-11000
▁neocortex	-11001
▁princeton	-11002
▁realities	-11003
▁venezuela	-11004
▁vibrating	-11005
▁worldview	-11006
▁calculated	-11007
▁conscience	-11008
▁employment	-11009
▁exceptions	-11010
▁influences	-11011
▁procedures	-11012
▁regenerate	-11013
▁repeatedly	-11014
▁specialist	-11015
▁strengthen	-11016
▁unintended	-11017
▁widespread	-11018
▁accelerated	-11019
▁commodities	-11020
▁negotiating	-11021
▁orientation	-11022
▁perceptions	-11023
▁remembering	-11024
▁threatening	-11025
▁wonderfully	-11026
▁disconnected	-11027
▁illustration	-11028
▁individually	-11029
▁manipulation	-11030
▁surveillance	-11031
▁contradiction	-11032
▁massachusetts	-11033
▁photographers	-11034
.5	-11035
bg	-11036
eg	-11037
des	-11038
pot	-11039
rer	-11040
upp	-11041
vae	-11042
▁ay	-11043
▁cs	-11044
▁ow	-11045
▁ps	-11046
atts	-11047
aver	-11048
bral	-11049
idal	-11050
none	-11051
onal	-11052
onto	-11053
rina	-11054
robi	-11055
than	-11056
ucks	-11057
▁1.3	-11058
▁aph	-11059
▁bip	-11060
▁fee	-11061
▁kal	-11062
▁kel	-11063
▁lag	-11064
▁owe	-11065
▁ric	-11066
▁rud	-11067
▁umb	-11068
▁wil	-11069
ached	-11070
erers	-11071
front	-11072
graph	-11073
illes	-11074
ourse	-11075
press	-11076
rated	-11077
ropon	-11078
▁100,	-11079
▁apes	-11080
▁aven	-11081
▁barb	-11082
▁bent	-11083
▁blad	-11084
▁bund	-11085
▁conj	-11086
▁cues	-11087
▁fred	-11088
▁hump	-11089
▁khan	-11090
▁lama	-11091
▁liby	-11092
▁lind	-11093
▁lobe	-11094
▁node	-11095
▁peps	-11096
▁rode	-11097
▁unin	-11098
▁wage	-11099
ashing	-11100
azeera	-11101
erving	-11102
friend	-11103
lights	-11104
▁alice	-11105
▁angel	-11106
▁arose	-11107
▁baker	-11108
▁burns	-11109
▁dalai	-11110
▁dealt	-11111
▁dynam	-11112
▁escal	-11113
▁fuzzy	-11114
▁georg	-11115
▁inade	-11116
▁inert	-11117
▁jerry	-11118
▁knees	-11119
▁neutr	-11120
▁newly	-11121
▁norms	-11122
▁oblig	-11123
▁radar	-11124
▁reads	-11125
▁scand	-11126
▁slave	-11127
▁sperm	-11128
▁strat	-11129
▁templ	-11130
▁trium	-11131
▁twins	-11132
▁usage	-11133
closure	-11134
inished	-11135
ocative	-11136
▁archae	-11137
▁biomim	-11138
▁bitter	-11139
▁bounce	-11140
▁coined	-11141
▁confir	-11142
▁copern	-11143
▁dallas	-11144
▁decomp	-11145
▁elders	-11146
▁fixing	-11147
▁fruits	-11148
▁greeks	-11149
▁hammer	-11150
▁hotter	-11151
▁intest	-11152
▁kansas	-11153
▁kibera	-11154
▁labels	-11155
▁laying	-11156
▁legisl	-11157
▁michel	-11158
▁mouths	-11159
▁multin	-11160
▁parked	-11161
▁purely	-11162
▁resemb	-11163
▁stairs	-11164
▁underp	-11165
▁viewer	-11166
▁viscer	-11167
▁writes	-11168
▁zipcar	-11169
chemical	-11170
ountered	-11171
▁300,000	-11172
▁ashamed	-11173
▁compact	-11174
▁confirm	-11175
▁denmark	-11176
▁donated	-11177
▁editors	-11178
▁enforce	-11179
▁erectus	-11180
▁excerpt	-11181
▁fission	-11182
▁hawking	-11183
▁hunters	-11184
▁jumping	-11185
▁lithium	-11186
▁priorit	-11187
▁redisco	-11188
▁refused	-11189
▁rehabil	-11190
▁settled	-11191
▁skeptic	-11192
▁spheres	-11193
▁surplus	-11194
▁toronto	-11195
▁warfare	-11196
▁whistle	-11197
▁winners	-11198
▁advertis	-11199
▁assuming	-11200
▁backpack	-11201
▁civilian	-11202
▁colonial	-11203
▁crystall	-11204
▁delicate	-11205
▁donation	-11206
▁duration	-11207
▁entities	-11208
▁envelope	-11209
▁equipped	-11210
▁explorer	-11211
▁inconven	-11212
▁margaret	-11213
▁midnight	-11214
▁misunder	-11215
▁publicly	-11216
▁rainfall	-11217
▁russians	-11218
▁sensible	-11219
▁stealing	-11220
▁volcanic	-11221
▁acknowled	-11222
▁addressed	-11223
▁affection	-11224
▁alongside	-11225
▁assistant	-11226
▁cathedral	-11227
▁committee	-11228
▁darwinian	-11229
▁directors	-11230
▁distorted	-11231
▁edinburgh	-11232
▁explorers	-11233
▁gratitude	-11234
▁hamburger	-11235
▁implanted	-11236
▁impressed	-11237
▁legendary	-11238
▁marvelous	-11239
▁paralysis	-11240
▁pathogens	-11241
▁recovered	-11242
▁strengths	-11243
▁accounting	-11244
▁accurately	-11245
▁attraction	-11246
▁centimeter	-11247
▁depressing	-11248
▁disruptive	-11249
▁intangible	-11250
▁pollutants	-11251
▁reflective	-11252
▁registered	-11253
▁standpoint	-11254
▁aspirations	-11255
▁automobiles	-11256
▁calculation	-11257
▁catastrophe	-11258
▁countryside	-11259
▁documenting	-11260
▁encountered	-11261
▁mammography	-11262
▁questioning	-11263
▁renaissance	-11264
▁consistently	-11265
▁developments	-11266
▁biotechnology	-11267
▁configuration	-11268
▁consideration	-11269
▁developmental	-11270
▁multinational	-11271
▁participating	-11272
▁spontaneously	-11273
▁supercomputer	-11274
▁neuroscientist	-11275
▁rehabilitation	-11276
▁desertification	-11277
201	-11278
ask	-11279
ben	-11280
bet	-11281
fig	-11282
kel	-11283
lli	-11284
ois	-11285
ugs	-11286
▁34	-11287
▁fm	-11288
▁ft	-11289
▁ss	-11290
abwe	-11291
acle	-11292
cock	-11293
iner	-11294
ocks	-11295
oter	-11296
prod	-11297
quez	-11298
reen	-11299
sell	-11300
uled	-11301
umen	-11302
ylan	-11303
▁amp	-11304
▁cav	-11305
▁cin	-11306
▁cue	-11307
▁lol	-11308
▁orn	-11309
▁rou	-11310
▁sie	-11311
▁sms	-11312
▁tig	-11313
arted	-11314
backs	-11315
could	-11316
erent	-11317
ibati	-11318
ieval	-11319
thand	-11320
uated	-11321
▁alar	-11322
▁auto	-11323
▁axes	-11324
▁bach	-11325
▁bass	-11326
▁bono	-11327
▁brig	-11328
▁dodo	-11329
▁dune	-11330
▁flop	-11331
▁gaze	-11332
▁heel	-11333
▁ipad	-11334
▁ivan	-11335
▁lays	-11336
▁mola	-11337
▁moms	-11338
▁nail	-11339
▁nerd	-11340
▁pets	-11341
▁pine	-11342
▁plum	-11343
▁rear	-11344
▁reed	-11345
▁sket	-11346
▁swar	-11347
▁yves	-11348
elines	-11349
having	-11350
urning	-11351
▁amino	-11352
▁beeth	-11353
▁canal	-11354
▁comed	-11355
▁darpa	-11356
▁delta	-11357
▁drain	-11358
▁dylan	-11359
▁eager	-11360
▁emily	-11361
▁fifty	-11362
▁grind	-11363
▁guilt	-11364
▁handy	-11365
▁harsh	-11366
▁higgs	-11367
▁hobby	-11368
▁incar	-11369
▁kyoto	-11370
▁lapse	-11371
▁lasts	-11372
▁leone	-11373
▁medit	-11374
▁myths	-11375
▁ninth	-11376
▁paths	-11377
▁perse	-11378
▁recip	-11379
▁relev	-11380
▁scope	-11381
▁shack	-11382
▁skype	-11383
▁slept	-11384
▁spite	-11385
▁tails	-11386
▁theft	-11387
▁trail	-11388
▁wives	-11389
▁wrest	-11390
ocratic	-11391
ologies	-11392
osition	-11393
someone	-11394
sterdam	-11395
▁argued	-11396
▁arrows	-11397
▁biases	-11398
▁coding	-11399
▁collar	-11400
▁crocod	-11401
▁darfur	-11402
▁depths	-11403
▁edited	-11404
▁enters	-11405
▁freeze	-11406
▁graham	-11407
▁heroic	-11408
▁improb	-11409
▁intend	-11410
▁irrele	-11411
▁jersey	-11412
▁ladder	-11413
▁malnut	-11414
▁melody	-11415
▁periph	-11416
▁priest	-11417
▁rooted	-11418
▁shield	-11419
▁shower	-11420
▁slowed	-11421
▁spills	-11422
▁stunts	-11423
▁syring	-11424
▁testim	-11425
▁thrust	-11426
▁titles	-11427
▁transm	-11428
▁turbul	-11429
▁voyage	-11430
orescent	-11431
whenever	-11432
▁250,000	-11433
▁altered	-11434
▁crushed	-11435
▁decides	-11436
▁dreamed	-11437
▁easiest	-11438
▁fractal	-11439
▁hacking	-11440
▁heights	-11441
▁holiday	-11442
▁iceberg	-11443
▁insulin	-11444
▁interde	-11445
▁jazeera	-11446
▁katrina	-11447
▁mineral	-11448
▁morally	-11449
▁mustard	-11450
▁partial	-11451
▁recycle	-11452
▁regimes	-11453
▁reperto	-11454
▁skilled	-11455
▁squeeze	-11456
▁swallow	-11457
▁tagging	-11458
▁textile	-11459
▁thunder	-11460
▁tightly	-11461
▁tourist	-11462
▁wasting	-11463
therefore	-11464
▁addicted	-11465
▁amateurs	-11466
▁approval	-11467
▁balloons	-11468
▁cerebral	-11469
▁charcoal	-11470
▁cocktail	-11471
▁commonly	-11472
▁constitu	-11473
▁diagnose	-11474
▁gigantic	-11475
▁goodness	-11476
▁habitats	-11477
▁indirect	-11478
▁kiribati	-11479
▁liberals	-11480
▁marginal	-11481
▁medieval	-11482
▁migraine	-11483
▁operator	-11484
▁overlook	-11485
▁pentagon	-11486
▁pinpoint	-11487
▁pristine	-11488
▁pursuing	-11489
▁redefine	-11490
▁resolved	-11491
▁rotating	-11492
▁scotland	-11493
▁sketches	-11494
▁suburban	-11495
▁superior	-11496
▁synapses	-11497
▁terminal	-11498
▁weakness	-11499
▁weekends	-11500
▁zimbabwe	-11501
▁apologize	-11502
▁armstrong	-11503
▁beethoven	-11504
▁certainty	-11505
▁certified	-11506
▁combining	-11507
▁continuum	-11508
▁egyptians	-11509
▁holocaust	-11510
▁intervene	-11511
▁isolation	-11512
▁limestone	-11513
▁massively	-11514
▁metabolic	-11515
▁resonance	-11516
▁survivors	-11517
▁sustained	-11518
▁voluntary	-11519
▁assessment	-11520
▁attributes	-11521
▁basketball	-11522
▁brainstorm	-11523
▁coordinate	-11524
▁globalized	-11525
▁infinitely	-11526
▁meditation	-11527
▁physiology	-11528
▁playground	-11529
▁sustaining	-11530
▁conclusions	-11531
▁continually	-11532
▁dysfunction	-11533
▁empowerment	-11534
▁expectation	-11535
▁fundraising	-11536
▁integrating	-11537
▁problematic	-11538
▁publication	-11539
▁astronomical	-11540
▁disabilities	-11541
▁disappointed	-11542
▁governmental	-11543
▁intersection	-11544
▁malnutrition	-11545
▁tremendously	-11546
▁determination	-11547
▁independently	-11548
▁personalities	-11549
▁presentations	-11550
▁statistically	-11551
▁undergraduate	-11552
▁nanotechnology	-11553
fu	-11554
awa	-11555
chs	-11556
dra	-11557
eem	-11558
eve	-11559
ipt	-11560
jud	-11561
pow	-11562
sen	-11563
tan	-11564
▁44	-11565
▁52	-11566
▁cn	-11567
▁cp	-11568
▁um	-11569
▁uv	-11570
,500	-11571
abad	-11572
acre	-11573
awed	-11574
eros	-11575
five	-11576
food	-11577
foot	-11578
hell	-11579
hill	-11580
icry	-11581
iflu	-11582
intu	-11583
roit	-11584
tles	-11585
zona	-11586
▁140	-11587
▁bak	-11588
▁bmw	-11589
▁inh	-11590
▁nai	-11591
▁nie	-11592
▁pap	-11593
▁rip	-11594
▁rna	-11595
▁sri	-11596
▁tyr	-11597
asant	-11598
bably	-11599
bands	-11600
cuses	-11601
elect	-11602
etary	-11603
lical	-11604
liers	-11605
opoly	-11606
otent	-11607
tered	-11608
ucose	-11609
▁alab	-11610
▁asym	-11611
▁bamb	-11612
▁bulk	-11613
▁ceos	-11614
▁deny	-11615
▁eman	-11616
▁eros	-11617
▁flap	-11618
▁fled	-11619
▁geor	-11620
▁herd	-11621
▁horn	-11622
▁jean	-11623
▁joel	-11624
▁juan	-11625
▁keen	-11626
▁mann	-11627
▁merm	-11628
▁neil	-11629
▁offe	-11630
▁owns	-11631
▁pron	-11632
▁quiz	-11633
▁risd	-11634
▁sars	-11635
▁swap	-11636
▁sync	-11637
▁unac	-11638
▁uran	-11639
aching	-11640
advant	-11641
atient	-11642
charge	-11643
imagin	-11644
inates	-11645
liness	-11646
ogenic	-11647
▁allen	-11648
▁appar	-11649
▁beast	-11650
▁bloom	-11651
▁bumps	-11652
▁colom	-11653
▁drama	-11654
▁drift	-11655
▁flown	-11656
▁freud	-11657
▁goats	-11658
▁homin	-11659
▁hunch	-11660
▁irres	-11661
▁jamie	-11662
▁jeans	-11663
▁pizza	-11664
▁serge	-11665
▁slipp	-11666
▁swing	-11667
▁tuber	-11668
▁wreck	-11669
idental	-11670
inators	-11671
lection	-11672
mothers	-11673
ounding	-11674
similar	-11675
▁academ	-11676
▁aerial	-11677
▁angels	-11678
▁benign	-11679
▁bookst	-11680
▁carrot	-11681
▁charts	-11682
▁differ	-11683
▁electr	-11684
▁exceed	-11685
▁expend	-11686
▁fluctu	-11687
▁greece	-11688
▁hollow	-11689
▁indoor	-11690
▁jordan	-11691
▁larvae	-11692
▁lenses	-11693
▁marcus	-11694
▁mozart	-11695
▁multim	-11696
▁payoff	-11697
▁phthal	-11698
▁pilots	-11699
▁reagan	-11700
▁rebell	-11701
▁reserv	-11702
▁resort	-11703
▁salmon	-11704
▁slogan	-11705
▁smiles	-11706
▁spades	-11707
▁spouse	-11708
▁stigma	-11709
▁tastes	-11710
▁throws	-11711
▁underm	-11712
▁undert	-11713
osterone	-11714
▁arizona	-11715
▁auditor	-11716
▁bananas	-11717
▁bankers	-11718
▁cameron	-11719
▁cassini	-11720
▁detroit	-11721
▁disagre	-11722
▁evident	-11723
▁forcing	-11724
▁glucose	-11725
▁lebanon	-11726
▁motorcy	-11727
▁mounted	-11728
▁museums	-11729
▁nairobi	-11730
▁optimal	-11731
▁painter	-11732
▁posture	-11733
▁prisons	-11734
▁reduces	-11735
▁refined	-11736
▁subsequ	-11737
▁tamiflu	-11738
▁tipping	-11739
▁titanic	-11740
▁trailer	-11741
▁victory	-11742
▁accommod	-11743
▁calendar	-11744
▁carnegie	-11745
▁collider	-11746
▁daylight	-11747
▁develops	-11748
▁doodling	-11749
▁dreaming	-11750
▁guardian	-11751
▁hydrocar	-11752
▁laughter	-11753
▁matching	-11754
▁meantime	-11755
▁movember	-11756
▁nicholas	-11757
▁observer	-11758
▁officers	-11759
▁optimize	-11760
▁passport	-11761
▁patience	-11762
▁photosyn	-11763
▁register	-11764
▁reporter	-11765
▁requests	-11766
▁sanitary	-11767
▁stressed	-11768
▁sympathy	-11769
▁unimagin	-11770
▁ambiguity	-11771
▁amsterdam	-11772
▁checklist	-11773
▁cigarette	-11774
▁cooperate	-11775
▁declining	-11776
▁disadvant	-11777
▁discussed	-11778
▁executive	-11779
▁fashioned	-11780
▁improvise	-11781
▁inflation	-11782
▁intricate	-11783
▁inventing	-11784
▁inventors	-11785
▁launching	-11786
▁northeast	-11787
▁northwest	-11788
▁orphanage	-11789
▁palestine	-11790
▁relatives	-11791
▁releasing	-11792
▁rendering	-11793
▁respected	-11794
▁returning	-11795
▁revealing	-11796
▁schooling	-11797
▁spaceship	-11798
▁struggled	-11799
▁triangles	-11800
▁varieties	-11801
▁whistling	-11802
▁attachment	-11803
▁beginnings	-11804
▁cartoonist	-11805
▁censorship	-11806
▁commentary	-11807
▁comparable	-11808
▁compressed	-11809
▁culturally	-11810
▁foreground	-11811
▁fulfilling	-11812
▁programmer	-11813
▁propulsion	-11814
▁randomness	-11815
▁repertoire	-11816
▁suspicious	-11817
▁worthwhile	-11818
▁accountable	-11819
▁appreciated	-11820
▁frustrating	-11821
▁introducing	-11822
▁maintaining	-11823
▁neanderthal	-11824
▁prototyping	-11825
▁variability	-11826
▁willingness	-11827
▁commandments	-11828
▁interconnect	-11829
▁testosterone	-11830
▁conservatives	-11831
▁deforestation	-11832
▁improvisation	-11833
▁traditionally	-11834
jh	-11835
ji	-11836
abe	-11837
alt	-11838
cro	-11839
emi	-11840
flu	-11841
gle	-11842
gon	-11843
hah	-11844
hey	-11845
obi	-11846
ols	-11847
sem	-11848
sis	-11849
tar	-11850
▁"'	-11851
▁bg	-11852
▁mp	-11853
▁ov	-11854
aire	-11855
arks	-11856
assy	-11857
bons	-11858
core	-11859
eing	-11860
gage	-11861
grat	-11862
inea	-11863
john	-11864
kids	-11865
obic	-11866
ousy	-11867
pler	-11868
rosc	-11869
text	-11870
▁900	-11871
▁bil	-11872
▁dug	-11873
▁hed	-11874
▁isa	-11875
▁lev	-11876
▁nun	-11877
▁piv	-11878
▁rag	-11879
▁roy	-11880
▁rug	-11881
▁til	-11882
▁wiz	-11883
annah	-11884
bling	-11885
books	-11886
celad	-11887
cials	-11888
ensed	-11889
ested	-11890
event	-11891
gebra	-11892
gered	-11893
india	-11894
leans	-11895
oping	-11896
uting	-11897
▁2003	-11898
▁anch	-11899
▁cane	-11900
▁cram	-11901
▁dorm	-11902
▁emma	-11903
▁fuse	-11904
▁goss	-11905
▁hood	-11906
▁ideo	-11907
▁mald	-11908
▁medi	-11909
▁ness	-11910
▁nike	-11911
▁odys	-11912
▁peru	-11913
▁rage	-11914
▁ramp	-11915
▁rupe	-11916
▁skip	-11917
▁slam	-11918
▁temb	-11919
▁trap	-11920
▁weep	-11921
atical	-11922
formed	-11923
health	-11924
places	-11925
plants	-11926
razine	-11927
recent	-11928
teries	-11929
twenty	-11930
ulsive	-11931
▁1990,	-11932
▁airst	-11933
▁awake	-11934
▁bands	-11935
▁blade	-11936
▁blows	-11937
▁cheer	-11938
▁chuck	-11939
▁compr	-11940
▁decon	-11941
▁fount	-11942
▁geese	-11943
▁grief	-11944
▁halls	-11945
▁icons	-11946
▁jason	-11947
▁lagos	-11948
▁lakes	-11949
▁moist	-11950
▁moses	-11951
▁noble	-11952
▁olive	-11953
▁oxide	-11954
▁peaks	-11955
▁pepsi	-11956
▁poles	-11957
▁poses	-11958
▁repet	-11959
▁skate	-11960
▁sniff	-11961
▁trait	-11962
▁vapor	-11963
▁vinci	-11964
▁vocal	-11965
celadus	-11966
certain	-11967
culosis	-11968
ennifer	-11969
luckily	-11970
massive	-11971
ometers	-11972
rasound	-11973
related	-11974
▁arithm	-11975
▁backed	-11976
▁bamboo	-11977
▁carcin	-11978
▁cliffs	-11979
▁cooler	-11980
▁defeat	-11981
▁drinks	-11982
▁easter	-11983
▁entity	-11984
▁enzyme	-11985
▁facult	-11986
▁firmly	-11987
▁fisher	-11988
▁guinea	-11989
▁heated	-11990
▁hotels	-11991
▁invade	-11992
▁jacket	-11993
▁judges	-11994
▁lakota	-11995
▁nicole	-11996
▁poorly	-11997
▁prizes	-11998
▁punish	-11999
▁reflex	-12000
▁retina	-12001
▁shells	-12002
▁slaves	-12003
▁specim	-12004
▁stated	-12005
▁stockp	-12006
▁tennis	-12007
▁tribut	-12008
▁valent	-12009
▁weekly	-12010
▁yorker	-12011
attering	-12012
moreover	-12013
ospheric	-12014
vascular	-12015
▁400,000	-12016
▁abandon	-12017
▁alabama	-12018
▁algebra	-12019
▁atheist	-12020
▁beaches	-12021
▁bending	-12022
▁biotech	-12023
▁cleaner	-12024
▁evolves	-12025
▁excuses	-12026
▁focuses	-12027
▁glowing	-12028
▁goodbye	-12029
▁hallway	-12030
▁heavens	-12031
▁indoors	-12032
▁lesters	-12033
▁liberia	-12034
▁magnets	-12035
▁mermaid	-12036
▁missile	-12037
▁monthly	-12038
▁orleans	-12039
▁packing	-12040
▁reinfor	-12041
▁sterile	-12042
▁volumes	-12043
izational	-12044
similarly	-12045
▁advocate	-12046
▁alliance	-12047
▁annoying	-12048
▁atrazine	-12049
▁barefoot	-12050
▁certific	-12051
▁cochlear	-12052
▁diagrams	-12053
▁drilling	-12054
▁drowning	-12055
▁embodied	-12056
▁governor	-12057
▁invasive	-12058
▁inviting	-12059
▁modified	-12060
▁noticing	-12061
▁obtained	-12062
▁pressing	-12063
▁regulate	-12064
▁remotely	-12065
▁scottish	-12066
▁sessions	-12067
▁shepherd	-12068
▁stewards	-12069
▁thorough	-12070
▁unaccept	-12071
eventually	-12072
▁academics	-12073
▁ambulance	-12074
▁argentina	-12075
▁campaigns	-12076
▁circuitry	-12077
▁crowdsour	-12078
▁cultivate	-12079
▁decentral	-12080
▁educating	-12081
▁enceladus	-12082
▁execution	-12083
▁inclusive	-12084
▁instincts	-12085
▁metaphors	-12086
▁pneumonia	-12087
▁relevance	-12088
▁stabilize	-12089
▁stimulate	-12090
▁submitted	-12091
▁synthesis	-12092
▁traumatic	-12093
▁waterfall	-12094
▁acceptable	-12095
▁arithmetic	-12096
▁aspiration	-12097
▁auditorium	-12098
▁controller	-12099
▁distribute	-12100
▁eradicated	-12101
▁expressing	-12102
▁footprints	-12103
▁harvesting	-12104
▁indication	-12105
▁innovators	-12106
▁irrelevant	-12107
▁irrigation	-12108
▁linguistic	-12109
▁opposition	-12110
▁smartphone	-12111
▁deconstruct	-12112
▁inefficient	-12113
▁intentional	-12114
▁meaningless	-12115
▁preventable	-12116
▁replicating	-12117
▁respiratory	-12118
▁acceleration	-12119
▁accidentally	-12120
▁collaborator	-12121
▁demographics	-12122
▁dictionaries	-12123
▁entertaining	-12124
▁incidentally	-12125
▁manufacturer	-12126
▁negotiations	-12127
▁tuberculosis	-12128
▁breakthroughs	-12129
▁corresponding	-12130
▁manifestation	-12131
aa	-12132
sm	-12133
aba	-12134
amy	-12135
bee	-12136
bro	-12137
cia	-12138
dog	-12139
esh	-12140
fts	-12141
gel	-12142
nas	-12143
non	-12144
pay	-12145
six	-12146
tro	-12147
uan	-12148
▁ai	-12149
▁bp	-12150
▁dm	-12151
▁jr	-12152
▁rb	-12153
atin	-12154
atus	-12155
bian	-12156
bled	-12157
both	-12158
dles	-12159
eard	-12160
grow	-12161
hops	-12162
ingo	-12163
inth	-12164
itas	-12165
itty	-12166
iven	-12167
mann	-12168
orph	-12169
orse	-12170
plan	-12171
rust	-12172
stud	-12173
verb	-12174
wear	-12175
zero	-12176
▁1.5	-12177
▁cel	-12178
▁dur	-12179
▁hoc	-12180
▁lip	-12181
▁lyn	-12182
▁nev	-12183
▁nud	-12184
▁ott	-12185
▁pam	-12186
▁quo	-12187
▁tad	-12188
▁vig	-12189
borne	-12190
ctors	-12191
fting	-12192
geria	-12193
otive	-12194
plete	-12195
wired	-12196
▁andy	-12197
▁balk	-12198
▁bart	-12199
▁cafe	-12200
▁carn	-12201
▁dash	-12202
▁doug	-12203
▁dove	-12204
▁dude	-12205
▁echo	-12206
▁ecst	-12207
▁envy	-12208
▁feas	-12209
▁fuck	-12210
▁lied	-12211
▁numb	-12212
▁perf	-12213
▁pist	-12214
▁pity	-12215
▁pops	-12216
▁snap	-12217
▁sony	-12218
▁swam	-12219
▁taxi	-12220
▁temp	-12221
▁tops	-12222
▁tuck	-12223
▁ucla	-12224
▁whip	-12225
▁wipe	-12226
acious	-12227
anting	-12228
cribed	-12229
energy	-12230
engine	-12231
igrade	-12232
nessee	-12233
redict	-12234
resses	-12235
ulture	-12236
▁2002,	-12237
▁agnes	-12238
▁arrog	-12239
▁backs	-12240
▁bikes	-12241
▁cello	-12242
▁croch	-12243
▁empir	-12244
▁faint	-12245
▁fatty	-12246
▁flame	-12247
▁grabs	-12248
▁gyrus	-12249
▁idiot	-12250
▁landf	-12251
▁libya	-12252
▁megaw	-12253
▁mitch	-12254
▁modes	-12255
▁nepal	-12256
▁pavil	-12257
▁posed	-12258
▁puppy	-12259
▁rhino	-12260
▁rides	-12261
▁scare	-12262
▁skies	-12263
▁slate	-12264
▁squir	-12265
▁steak	-12266
▁steer	-12267
▁theat	-12268
▁tread	-12269
▁tunas	-12270
▁tutor	-12271
▁twent	-12272
▁vents	-12273
▁venus	-12274
▁verge	-12275
cussion	-12276
organic	-12277
roponte	-12278
▁admire	-12279
▁advers	-12280
▁agrees	-12281
▁antide	-12282
▁avenue	-12283
▁awards	-12284
▁bhutan	-12285
▁biased	-12286
▁cooked	-12287
▁cradle	-12288
▁drople	-12289
▁dumped	-12290
▁europa	-12291
▁fiscal	-12292
▁flickr	-12293
▁forger	-12294
▁kepler	-12295
▁mantis	-12296
▁microw	-12297
▁miller	-12298
▁oliver	-12299
▁refram	-12300
▁slices	-12301
▁sobule	-12302
▁sought	-12303
▁stereo	-12304
▁unexpl	-12305
▁urgent	-12306
▁venter	-12307
▁wander	-12308
probably	-12309
▁aerodyn	-12310
▁broadly	-12311
▁careers	-12312
▁categor	-12313
▁congrat	-12314
▁couples	-12315
▁editing	-12316
▁embassy	-12317
▁empires	-12318
▁epidemi	-12319
▁inhabit	-12320
▁inmates	-12321
▁janitor	-12322
▁joining	-12323
▁knocked	-12324
▁manages	-12325
▁mentors	-12326
▁migrate	-12327
▁outsour	-12328
▁prevail	-12329
▁relates	-12330
▁rightly	-12331
▁romance	-12332
▁scripts	-12333
▁seasons	-12334
▁shaping	-12335
▁siberia	-12336
▁somalia	-12337
▁sounded	-12338
▁squared	-12339
▁tattoos	-12340
▁toilets	-12341
▁tribute	-12342
▁triumph	-12343
▁unified	-12344
▁warrior	-12345
intuitive	-12346
▁airports	-12347
▁applause	-12348
▁archimed	-12349
▁autistic	-12350
▁aviation	-12351
▁biomater	-12352
▁conceive	-12353
▁crawling	-12354
▁directed	-12355
▁emission	-12356
▁employed	-12357
▁evaluate	-12358
▁ideology	-12359
▁insecure	-12360
▁maldives	-12361
▁missions	-12362
▁notation	-12363
▁orbiting	-12364
▁performs	-12365
▁policing	-12366
▁primates	-12367
▁receiver	-12368
▁referred	-12369
▁shouting	-12370
▁stimulus	-12371
▁strictly	-12372
▁underway	-12373
▁visitors	-12374
▁billboard	-12375
▁boyfriend	-12376
▁criticism	-12377
▁demanding	-12378
▁developer	-12379
▁displaced	-12380
▁educators	-12381
▁exclusive	-12382
▁exquisite	-12383
▁extensive	-12384
▁followers	-12385
▁ingenious	-12386
▁interfere	-12387
▁intersect	-12388
▁ministers	-12389
▁qualified	-12390
▁reconnect	-12391
▁southwest	-12392
▁tennessee	-12393
▁unpredict	-12394
▁acceptance	-12395
▁adventures	-12396
▁antibiotic	-12397
▁antibodies	-12398
▁attempting	-12399
▁capacities	-12400
▁conducting	-12401
▁contagious	-12402
▁identities	-12403
▁inadequate	-12404
▁measurable	-12405
▁negroponte	-12406
▁outrageous	-12407
▁protocells	-12408
▁responsive	-12409
▁settlement	-12410
▁synthesize	-12411
▁temptation	-12412
▁transistor	-12413
▁antidepress	-12414
▁celebrating	-12415
▁complaining	-12416
▁efficiently	-12417
▁enlightened	-12418
▁existential	-12419
▁financially	-12420
▁hummingbird	-12421
▁lightweight	-12422
▁measurement	-12423
▁medications	-12424
▁negotiation	-12425
▁projections	-12426
▁specialists	-12427
▁submersible	-12428
▁transistors	-12429
▁translating	-12430
▁availability	-12431
▁interference	-12432
▁interviewing	-12433
▁quantitative	-12434
▁regenerative	-12435
▁similarities	-12436
▁surroundings	-12437
▁unacceptable	-12438
▁experimenting	-12439
▁installations	-12440
▁intrinsically	-12441
▁bioluminescent	-12442
ho	-12443
atz	-12444
hou	-12445
iju	-12446
oqu	-12447
pit	-12448
rot	-12449
run	-12450
sch	-12451
xon	-12452
▁?"	-12453
▁bj	-12454
▁kr	-12455
alan	-12456
arin	-12457
aste	-12458
conf	-12459
esty	-12460
fred	-12461
held	-12462
hist	-12463
hrir	-12464
ileo	-12465
imee	-12466
inos	-12467
itis	-12468
leum	-12469
math	-12470
name	-12471
ucts	-12472
wait	-12473
▁'30	-12474
▁14,	-12475
▁2.5	-12476
▁bam	-12477
▁cia	-12478
▁cri	-12479
▁diy	-12480
▁gil	-12481
▁gle	-12482
▁gym	-12483
▁hex	-12484
▁hud	-12485
▁jen	-12486
▁kan	-12487
▁nik	-12488
▁oak	-12489
▁obe	-12490
▁ren	-12491
▁spi	-12492
▁sue	-12493
▁tai	-12494
▁tul	-12495
▁wag	-12496
▁wig	-12497
anted	-12498
aylor	-12499
bolic	-12500
ffiti	-12501
munic	-12502
olith	-12503
proof	-12504
▁adul	-12505
▁apoc	-12506
▁bail	-12507
▁boot	-12508
▁buys	-12509
▁coma	-12510
▁curs	-12511
▁doha	-12512
▁duke	-12513
▁ease	-12514
▁exit	-12515
▁fans	-12516
▁grip	-12517
▁jury	-12518
▁lava	-12519
▁lazy	-12520
▁lisa	-12521
▁merc	-12522
▁moss	-12523
▁mund	-12524
▁navy	-12525
▁plut	-12526
▁quar	-12527
▁rept	-12528
▁rift	-12529
▁romo	-12530
▁sabb	-12531
▁seiz	-12532
▁sham	-12533
▁stef	-12534
▁subm	-12535
▁tang	-12536
▁teap	-12537
▁tide	-12538
▁yale	-12539
americ	-12540
ijuana	-12541
irable	-12542
iverse	-12543
izable	-12544
making	-12545
ordial	-12546
oscope	-12547
ranean	-12548
rocess	-12549
unlike	-12550
writer	-12551
▁2011,	-12552
▁2050,	-12553
▁beats	-12554
▁centr	-12555
▁chord	-12556
▁clash	-12557
▁claws	-12558
▁costa	-12559
▁crawl	-12560
▁cubic	-12561
▁denom	-12562
▁deriv	-12563
▁dunes	-12564
▁essay	-12565
▁exxon	-12566
▁fraud	-12567
▁hindu	-12568
▁hitch	-12569
▁hurts	-12570
▁kamen	-12571
▁legos	-12572
▁livel	-12573
▁merit	-12574
▁moons	-12575
▁oiled	-12576
▁onset	-12577
▁ozone	-12578
▁penis	-12579
▁piles	-12580
▁punct	-12581
▁races	-12582
▁rebel	-12583
▁rolls	-12584
▁rooft	-12585
▁ruled	-12586
▁sanct	-12587
▁shuff	-12588
▁sober	-12589
▁souls	-12590
▁spong	-12591
▁stagn	-12592
▁stain	-12593
▁stats	-12594
▁swear	-12595
▁syria	-12596
▁therm	-12597
▁trump	-12598
▁trunk	-12599
▁tweet	-12600
▁unite	-12601
▁unity	-12602
▁valve	-12603
▁vegas	-12604
▁versa	-12605
▁wages	-12606
▁whirl	-12607
illions	-12608
nostics	-12609
rection	-12610
rospect	-12611
▁barack	-12612
▁boreal	-12613
▁brakes	-12614
▁camels	-12615
▁cardio	-12616
▁cement	-12617
▁delete	-12618
▁dissem	-12619
▁edible	-12620
▁edward	-12621
▁elites	-12622
▁esteem	-12623
▁fights	-12624
▁finite	-12625
▁fungus	-12626
▁hacker	-12627
▁hadron	-12628
▁inputs	-12629
▁issued	-12630
▁lasted	-12631
▁levers	-12632
▁listed	-12633
▁mosque	-12634
▁nevada	-12635
▁overse	-12636
▁palace	-12637
▁pirate	-12638
▁poorer	-12639
▁popped	-12640
▁praise	-12641
▁prejud	-12642
▁primal	-12643
▁prints	-12644
▁proves	-12645
▁pushes	-12646
▁refers	-12647
▁reluct	-12648
▁sealed	-12649
▁shirts	-12650
▁spends	-12651
▁sucked	-12652
▁tahrir	-12653
▁tedmed	-12654
▁thesis	-12655
▁timber	-12656
▁transf	-12657
▁vector	-12658
ceptible	-12659
somebody	-12660
▁apprent	-12661
▁boiling	-12662
▁carpent	-12663
▁cleaned	-12664
▁compart	-12665
▁compens	-12666
▁crashed	-12667
▁defines	-12668
▁deserts	-12669
▁dragged	-12670
▁enzymes	-12671
▁erosion	-12672
▁extends	-12673
▁georgia	-12674
▁graders	-12675
▁inspect	-12676
▁legitim	-12677
▁logging	-12678
▁modular	-12679
▁payment	-12680
▁phrases	-12681
▁plotted	-12682
▁rabbits	-12683
▁ratings	-12684
▁rehears	-12685
▁replied	-12686
▁retired	-12687
▁seafood	-12688
▁senator	-12689
▁seroton	-12690
▁shallow	-12691
▁suburbs	-12692
▁superst	-12693
▁swedish	-12694
▁toaster	-12695
▁tracked	-12696
▁turkish	-12697
▁uranium	-12698
▁absorbed	-12699
▁ancestry	-12700
▁animated	-12701
▁assigned	-12702
▁athletes	-12703
▁catalyst	-12704
▁communal	-12705
▁consists	-12706
▁creators	-12707
▁credible	-12708
▁dividing	-12709
▁emergent	-12710
▁employee	-12711
▁fighters	-12712
▁frequent	-12713
▁graffiti	-12714
▁grounded	-12715
▁guidance	-12716
▁horrific	-12717
▁husbands	-12718
▁implants	-12719
▁insisted	-12720
▁literary	-12721
▁marathon	-12722
▁periodic	-12723
▁portugal	-12724
▁predicts	-12725
▁prevents	-12726
▁reacting	-12727
▁sacrific	-12728
▁siblings	-12729
▁smartest	-12730
▁steering	-12731
▁stripped	-12732
▁sweeping	-12733
▁trustwor	-12734
▁unstable	-12735
▁appealing	-12736
▁arbitrary	-12737
▁attempted	-12738
▁automated	-12739
▁automatic	-12740
▁competent	-12741
▁contracts	-12742
▁defending	-12743
▁detectors	-12744
▁digitally	-12745
▁donations	-12746
▁embryonic	-12747
▁generator	-12748
▁himalayas	-12749
▁imaginary	-12750
▁imbalance	-12751
▁kilograms	-12752
▁marijuana	-12753
▁pediatric	-12754
▁photoshop	-12755
▁pregnancy	-12756
▁premature	-12757
▁routinely	-12758
▁selective	-12759
▁shrinking	-12760
▁simulated	-12761
▁southeast	-12762
▁stretched	-12763
▁visionary	-12764
▁accidental	-12765
▁advantages	-12766
▁ambassador	-12767
▁appliances	-12768
▁archimedes	-12769
▁australian	-12770
▁biomimicry	-12771
▁calculator	-12772
▁criticized	-12773
▁explicitly	-12774
▁filmmakers	-12775
▁illiterate	-12776
▁lesterland	-12777
▁pesticides	-12778
▁primordial	-12779
▁starvation	-12780
▁subjective	-12781
▁superpower	-12782
▁thoughtful	-12783
▁ultrasound	-12784
▁arrangement	-12785
▁atmospheric	-12786
▁coincidence	-12787
▁competitors	-12788
▁conferences	-12789
▁degradation	-12790
▁democracies	-12791
▁imaginative	-12792
▁implication	-12793
▁involvement	-12794
▁scholarship	-12795
▁seriousness	-12796
▁suggestions	-12797
▁synesthesia	-12798
▁visualizing	-12799
▁contaminated	-12800
▁deliberately	-12801
▁descriptions	-12802
▁differential	-12803
▁fluctuations	-12804
▁refrigerator	-12805
▁supermassive	-12806
▁unemployment	-12807
▁appropriately	-12808
▁collaborators	-12809
▁comprehensive	-12810
▁contributions	-12811
▁effectiveness	-12812
▁investigating	-12813
▁underestimate	-12814
▁worldchanging	-12815
▁industrialized	-12816
▁experimentation	-12817
eb	-12818
hc	-12819
mt	-12820
zo	-12821
▁0	-12822
cca	-12823
ieu	-12824
iry	-12825
izz	-12826
lan	-12827
lem	-12828
lif	-12829
oys	-12830
sea	-12831
tic	-12832
tra	-12833
uci	-12834
una	-12835
▁dd	-12836
▁dj	-12837
▁om	-12838
▁rs	-12839
▁wk	-12840
acks	-12841
amas	-12842
does	-12843
enza	-12844
icus	-12845
ieth	-12846
ippi	-12847
irth	-12848
lene	-12849
made	-12850
nels	-12851
rett	-12852
rine	-12853
rosh	-12854
tion	-12855
wall	-12856
will	-12857
ymph	-12858
▁25,	-12859
▁ais	-12860
▁aus	-12861
▁bbc	-12862
▁cnn	-12863
▁cym	-12864
▁ecu	-12865
▁fbi	-12866
▁imf	-12867
▁ove	-12868
▁ply	-12869
▁rac	-12870
▁rut	-12871
▁sid	-12872
▁tob	-12873
abyte	-12874
alone	-12875
atile	-12876
avors	-12877
berto	-12878
dling	-12879
frame	-12880
ibles	-12881
ihood	-12882
piens	-12883
ppers	-12884
umann	-12885
viral	-12886
world	-12887
▁1940	-12888
▁amph	-12889
▁anes	-12890
▁apar	-12891
▁bald	-12892
▁bion	-12893
▁boun	-12894
▁cran	-12895
▁dazz	-12896
▁dele	-12897
▁dwar	-12898
▁epic	-12899
▁fees	-12900
▁hull	-12901
▁jama	-12902
▁lank	-12903
▁mism	-12904
▁myst	-12905
▁plur	-12906
▁prad	-12907
▁prag	-12908
▁ripp	-12909
▁sank	-12910
▁seth	-12911
▁skyd	-12912
▁spra	-12913
▁sums	-12914
▁tire	-12915
▁wolf	-12916
abytes	-12917
esters	-12918
houses	-12919
nobody	-12920
ologic	-12921
piracy	-12922
terior	-12923
things	-12924
ulates	-12925
▁aimee	-12926
▁appet	-12927
▁biode	-12928
▁bruno	-12929
▁cairo	-12930
▁careg	-12931
▁cease	-12932
▁crabs	-12933
▁eyebr	-12934
▁flags	-12935
▁goose	-12936
▁hilar	-12937
▁hurry	-12938
▁ipods	-12939
▁iraqi	-12940
▁irish	-12941
▁landm	-12942
▁levit	-12943
▁maria	-12944
▁oppon	-12945
▁poets	-12946
▁posts	-12947
▁prone	-12948
▁prose	-12949
▁rearr	-12950
▁roger	-12951
▁scrap	-12952
▁stiff	-12953
▁stink	-12954
▁toxin	-12955
▁vague	-12956
amation	-12957
banisha	-12958
issippi	-12959
keeping	-12960
reating	-12961
writing	-12962
▁astrol	-12963
▁bakery	-12964
▁banker	-12965
▁bertie	-12966
▁bronze	-12967
▁bucket	-12968
▁carter	-12969
▁cellul	-12970
▁cinema	-12971
▁costly	-12972
▁curved	-12973
▁danish	-12974
▁decept	-12975
▁digits	-12976
▁dining	-12977
▁eleven	-12978
▁exclud	-12979
▁fueled	-12980
▁gifted	-12981
▁hijack	-12982
▁hudson	-12983
▁impose	-12984
▁insult	-12985
▁ironic	-12986
▁lining	-12987
▁melted	-12988
▁murray	-12989
▁ninety	-12990
▁noises	-12991
▁optics	-12992
▁pepper	-12993
▁poured	-12994
▁quotes	-12995
▁redund	-12996
▁rented	-12997
▁routes	-12998
▁senate	-12999
▁strips	-13000
▁tablet	-13001
▁taller	-13002
▁taylor	-13003
▁thrive	-13004
▁tigers	-13005
▁turtle	-13006
▁varied	-13007
▁wallet	-13008
recently	-13009
▁abalone	-13010
▁accused	-13011
▁analyst	-13012
▁animate	-13013
▁asymmet	-13014
▁bombing	-13015
▁breasts	-13016
▁capsule	-13017
▁chariot	-13018
▁explode	-13019
▁favelas	-13020
▁fellows	-13021
▁flatten	-13022
▁gadgets	-13023
▁gaining	-13024
▁grandma	-13025
▁grounds	-13026
▁inherit	-13027
▁locking	-13028
▁mandate	-13029
▁mediter	-13030
▁metrics	-13031
▁monolog	-13032
▁nursing	-13033
▁placing	-13034
▁polymer	-13035
▁primate	-13036
▁recipes	-13037
▁recruit	-13038
▁sapiens	-13039
▁symptom	-13040
▁thirdly	-13041
▁tropics	-13042
▁turtles	-13043
▁urgency	-13044
▁withdra	-13045
▁agnostic	-13046
▁aquarium	-13047
▁atheists	-13048
▁auditory	-13049
▁bicycles	-13050
▁bleeding	-13051
▁captures	-13052
▁charming	-13053
▁coherent	-13054
▁colorado	-13055
▁contexts	-13056
▁currents	-13057
▁declined	-13058
▁dictator	-13059
▁digitize	-13060
▁emphasis	-13061
▁epiphany	-13062
▁flooding	-13063
▁forehead	-13064
▁handling	-13065
▁highways	-13066
▁israelis	-13067
▁jennifer	-13068
▁monopoly	-13069
▁occupied	-13070
▁protects	-13071
▁province	-13072
▁searches	-13073
▁shortcut	-13074
▁squatter	-13075
▁stirling	-13076
▁stumbled	-13077
▁switches	-13078
▁triggers	-13079
▁troubled	-13080
▁appearing	-13081
▁attribute	-13082
▁belonging	-13083
▁databases	-13084
▁diffusion	-13085
▁europeans	-13086
▁exhausted	-13087
▁extending	-13088
▁fertility	-13089
▁graduates	-13090
▁headaches	-13091
▁immensely	-13092
▁imperfect	-13093
▁incubator	-13094
▁inherited	-13095
▁inorganic	-13096
▁mammogram	-13097
▁partially	-13098
▁penetrate	-13099
▁personnel	-13100
▁practiced	-13101
▁prevalent	-13102
▁publisher	-13103
▁reporters	-13104
▁reprogram	-13105
▁satisfied	-13106
▁serotonin	-13107
▁simulator	-13108
▁startling	-13109
▁subsidies	-13110
▁switching	-13111
▁triggered	-13112
▁unsustain	-13113
▁articulate	-13114
▁complained	-13115
▁conspiracy	-13116
▁containers	-13117
▁correlated	-13118
▁courageous	-13119
▁cumulative	-13120
▁geological	-13121
▁guidelines	-13122
▁homosexual	-13123
▁humanities	-13124
▁journalism	-13125
▁livelihood	-13126
▁occupation	-13127
▁perfection	-13128
▁performers	-13129
▁persistent	-13130
▁telephones	-13131
▁unemployed	-13132
▁anticipated	-13133
▁centralized	-13134
▁citizenship	-13135
▁constrained	-13136
▁convenience	-13137
▁convergence	-13138
▁distinctive	-13139
▁exceptional	-13140
▁illustrates	-13141
▁manipulated	-13142
▁methodology	-13143
▁scaffolding	-13144
▁announcement	-13145
▁combinations	-13146
▁commissioned	-13147
▁enthusiastic	-13148
▁experimenter	-13149
▁performances	-13150
▁mediterranean	-13151
▁transcendence	-13152
▁unpredictable	-13153
▁cardiovascular	-13154
▁groundbreaking	-13155
▁mathematically	-13156
▁superconductor	-13157
12	-13158
bj	-13159
fa	-13160
fi	-13161
hu	-13162
aic	-13163
aki	-13164
cre	-13165
dis	-13166
eur	-13167
fif	-13168
ika	-13169
uay	-13170
▁au	-13171
..."	-13172
boat	-13173
cile	-13174
cils	-13175
corn	-13176
desp	-13177
dney	-13178
erry	-13179
fran	-13180
gill	-13181
holm	-13182
hran	-13183
icer	-13184
icut	-13185
ilia	-13186
mies	-13187
moud	-13188
opsy	-13189
oris	-13190
otal	-13191
race	-13192
rice	-13193
rick	-13194
roid	-13195
sure	-13196
wels	-13197
word	-13198
▁110	-13199
▁12.	-13200
▁13,	-13201
▁19,	-13202
▁bah	-13203
▁bye	-13204
▁dip	-13205
▁eis	-13206
▁fah	-13207
▁gab	-13208
▁kay	-13209
▁liz	-13210
▁nod	-13211
▁onc	-13212
▁ope	-13213
▁pup	-13214
▁rex	-13215
▁rus	-13216
▁sor	-13217
ambia	-13218
amese	-13219
aming	-13220
amous	-13221
berty	-13222
eenth	-13223
eling	-13224
ergio	-13225
hello	-13226
idity	-13227
iping	-13228
iraff	-13229
isure	-13230
opher	-13231
regon	-13232
stick	-13233
unted	-13234
virus	-13235
▁10."	-13236
▁anom	-13237
▁atro	-13238
▁boil	-13239
▁brow	-13240
▁coup	-13241
▁cush	-13242
▁foxo	-13243
▁gary	-13244
▁hect	-13245
▁hers	-13246
▁hive	-13247
▁jeep	-13248
▁leds	-13249
▁marx	-13250
▁mite	-13251
▁nash	-13252
▁pies	-13253
▁ruin	-13254
▁sook	-13255
▁sple	-13256
▁todd	-13257
▁tofu	-13258
▁veil	-13259
ateral	-13260
cities	-13261
giving	-13262
iretro	-13263
jacent	-13264
ocracy	-13265
rendip	-13266
urance	-13267
urfing	-13268
▁1,100	-13269
▁alleg	-13270
▁amput	-13271
▁annoy	-13272
▁beans	-13273
▁blend	-13274
▁blobs	-13275
▁booms	-13276
▁booth	-13277
▁brute	-13278
▁carve	-13279
▁dates	-13280
▁deleg	-13281
▁drone	-13282
▁eames	-13283
▁files	-13284
▁hears	-13285
▁heter	-13286
▁lobes	-13287
▁loops	-13288
▁loser	-13289
▁lymph	-13290
▁oscar	-13291
▁overf	-13292
▁pools	-13293
▁quart	-13294
▁remed	-13295
▁resid	-13296
▁rever	-13297
▁rider	-13298
▁rouge	-13299
▁scuba	-13300
▁shade	-13301
▁smash	-13302
▁soils	-13303
▁spear	-13304
▁spins	-13305
▁stall	-13306
▁stole	-13307
▁tours	-13308
▁verse	-13309
▁virul	-13310
chester	-13311
despite	-13312
fulness	-13313
glasses	-13314
ndering	-13315
▁basics	-13316
▁byprod	-13317
▁cloned	-13318
▁cruise	-13319
▁dances	-13320
▁dement	-13321
▁embark	-13322
▁enlist	-13323
▁extens	-13324
▁fierce	-13325
▁fishes	-13326
▁floods	-13327
▁galois	-13328
▁gamble	-13329
▁gaming	-13330
▁gently	-13331
▁giraff	-13332
▁gloves	-13333
▁haired	-13334
▁harris	-13335
▁hirosh	-13336
▁hitler	-13337
▁inspir	-13338
▁makeup	-13339
▁metast	-13340
▁microp	-13341
▁mutant	-13342
▁nanosc	-13343
▁oregon	-13344
▁plural	-13345
▁poland	-13346
▁retain	-13347
▁retrof	-13348
▁roller	-13349
▁rotten	-13350
▁sergio	-13351
▁splash	-13352
▁strang	-13353
▁taxpay	-13354
▁theirs	-13355
▁thirty	-13356
▁throat	-13357
▁waking	-13358
audience	-13359
national	-13360
▁athlete	-13361
▁auction	-13362
▁battles	-13363
▁cheetah	-13364
▁chewing	-13365
▁crosses	-13366
▁crowded	-13367
▁dangers	-13368
▁depress	-13369
▁ecuador	-13370
▁escaped	-13371
▁filming	-13372
▁funeral	-13373
▁galileo	-13374
▁induced	-13375
▁intimid	-13376
▁invaded	-13377
▁kidneys	-13378
▁leisure	-13379
▁millise	-13380
▁miracul	-13381
▁motions	-13382
▁multipl	-13383
▁mundane	-13384
▁natalie	-13385
▁newborn	-13386
▁orbital	-13387
▁overlap	-13388
▁paleont	-13389
▁peanuts	-13390
▁proving	-13391
▁psychic	-13392
▁puberty	-13393
▁rainbow	-13394
▁recipro	-13395
▁relaxed	-13396
▁satisfy	-13397
▁spirits	-13398
▁sponsor	-13399
▁surfing	-13400
▁tedster	-13401
▁tiniest	-13402
▁tornado	-13403
▁unequal	-13404
▁upgrade	-13405
▁vibrant	-13406
▁vicious	-13407
▁visuals	-13408
▁volcano	-13409
conscious	-13410
▁achilles	-13411
▁altruism	-13412
▁blessing	-13413
▁blocking	-13414
▁bulgaria	-13415
▁delusion	-13416
▁deterior	-13417
▁displace	-13418
▁embraced	-13419
▁estrogen	-13420
▁feminine	-13421
▁friedman	-13422
▁governed	-13423
▁handsome	-13424
▁immersed	-13425
▁immortal	-13426
▁improves	-13427
▁incarcer	-13428
▁invasion	-13429
▁kilogram	-13430
▁lifelong	-13431
▁miracles	-13432
▁murdered	-13433
▁pavilion	-13434
▁programm	-13435
▁quantity	-13436
▁realizes	-13437
▁receives	-13438
▁reconcil	-13439
▁rendered	-13440
▁schedule	-13441
▁sculptor	-13442
▁settings	-13443
▁sideways	-13444
▁starving	-13445
▁stepping	-13446
▁threaten	-13447
▁timeline	-13448
▁tolerate	-13449
▁trusting	-13450
▁vascular	-13451
▁visceral	-13452
▁wetlands	-13453
▁antiretro	-13454
▁apparatus	-13455
▁balancing	-13456
▁bookstore	-13457
▁capturing	-13458
▁coalition	-13459
▁cognition	-13460
▁collapses	-13461
▁companion	-13462
▁confusing	-13463
▁extracted	-13464
▁heartbeat	-13465
▁imitation	-13466
▁intermedi	-13467
▁meanwhile	-13468
▁mentality	-13469
▁microwave	-13470
▁nollywood	-13471
▁pakistani	-13472
▁populated	-13473
▁strangely	-13474
▁submarine	-13475
▁surprises	-13476
▁testimony	-13477
▁therapist	-13478
▁viewpoint	-13479
▁villagers	-13480
▁volcanoes	-13481
▁aesthetics	-13482
▁altogether	-13483
▁assembling	-13484
▁automotive	-13485
▁brilliance	-13486
▁capitalist	-13487
▁casualties	-13488
▁centigrade	-13489
▁containing	-13490
▁continuity	-13491
▁downstairs	-13492
▁downstream	-13493
▁excellence	-13494
▁explosions	-13495
▁expressive	-13496
▁fragmented	-13497
▁liberation	-13498
▁motorcycle	-13499
▁multiverse	-13500
▁obligation	-13501
▁orchestras	-13502
▁panbanisha	-13503
▁passengers	-13504
▁perceptual	-13505
▁phthalates	-13506
▁preserving	-13507
▁projecting	-13508
▁protective	-13509
▁retrospect	-13510
▁sandwiches	-13511
▁simplistic	-13512
▁substitute	-13513
▁vietnamese	-13514
▁adolescents	-13515
▁connecticut	-13516
▁eliminating	-13517
▁expeditions	-13518
▁extinctions	-13519
▁fabrication	-13520
▁fingerprint	-13521
▁fluorescent	-13522
▁incremental	-13523
▁interviewer	-13524
▁mississippi	-13525
▁permanently	-13526
▁philippines	-13527
▁provocative	-13528
▁radioactive	-13529
▁replication	-13530
▁stereotypes	-13531
▁technicians	-13532
▁transferred	-13533
▁exploitation	-13534
▁grandmothers	-13535
▁neurological	-13536
▁preservation	-13537
▁reproductive	-13538
▁standardized	-13539
▁unimaginable	-13540
▁customization	-13541
▁decentralized	-13542
▁establishment	-13543
▁instinctively	-13544
▁photographing	-13545
▁proliferation	-13546
▁substantially	-13547
▁unsustainable	-13548
▁anthropologist	-13549
▁identification	-13550
▁representatives	-13551
.9	-13552
di	-13553
mi	-13554
rh	-13555
tt	-13556
abs	-13557
alg	-13558
chi	-13559
cke	-13560
cop	-13561
dan	-13562
die	-13563
eer	-13564
far	-13565
hry	-13566
ikh	-13567
lab	-13568
tim	-13569
uda	-13570
yll	-13571
▁39	-13572
▁gn	-13573
▁oo	-13574
▁sj	-13575
adel	-13576
arse	-13577
asis	-13578
atma	-13579
bags	-13580
bath	-13581
brew	-13582
feld	-13583
inda	-13584
into	-13585
kers	-13586
lier	-13587
nals	-13588
note	-13589
omin	-13590
owed	-13591
phia	-13592
pres	-13593
rock	-13594
uper	-13595
urge	-13596
▁"20	-13597
▁1.4	-13598
▁ace	-13599
▁eag	-13600
▁ion	-13601
▁mck	-13602
▁mop	-13603
▁muh	-13604
▁mul	-13605
▁nad	-13606
▁opa	-13607
▁oun	-13608
▁rav	-13609
▁thy	-13610
apped	-13611
elope	-13612
etics	-13613
ffect	-13614
igned	-13615
ocate	-13616
rists	-13617
sorry	-13618
start	-13619
theid	-13620
turns	-13621
uates	-13622
voice	-13623
▁aura	-13624
▁aver	-13625
▁barc	-13626
▁barg	-13627
▁cant	-13628
▁clap	-13629
▁clog	-13630
▁cops	-13631
▁crum	-13632
▁dads	-13633
▁enri	-13634
▁fmri	-13635
▁gour	-13636
▁guru	-13637
▁hyun	-13638
▁jaws	-13639
▁lamb	-13640
▁magg	-13641
▁maur	-13642
▁mega	-13643
▁mell	-13644
▁memo	-13645
▁nazi	-13646
▁neph	-13647
▁pads	-13648
▁pest	-13649
▁rang	-13650
▁rory	-13651
▁shim	-13652
▁skys	-13653
▁spoo	-13654
▁suey	-13655
▁sund	-13656
▁tile	-13657
▁tilt	-13658
▁unch	-13659
▁unne	-13660
▁warn	-13661
almost	-13662
belief	-13663
contin	-13664
enberg	-13665
erness	-13666
igible	-13667
imated	-13668
liance	-13669
ouched	-13670
ounded	-13671
rolled	-13672
thanks	-13673
uating	-13674
▁2,500	-13675
▁acron	-13676
▁admin	-13677
▁bever	-13678
▁blunt	-13679
▁botan	-13680
▁clich	-13681
▁cores	-13682
▁diego	-13683
▁downs	-13684
▁dried	-13685
▁dwarf	-13686
▁erase	-13687
▁erupt	-13688
▁gamma	-13689
▁gangs	-13690
▁gears	-13691
▁gehry	-13692
▁guest	-13693
▁hence	-13694
▁inapp	-13695
▁indul	-13696
▁isaac	-13697
▁jonas	-13698
▁klein	-13699
▁lover	-13700
▁lyric	-13701
▁milit	-13702
▁paulo	-13703
▁reuse	-13704
▁sadly	-13705
▁scars	-13706
▁shook	-13707
▁smugg	-13708
▁sunny	-13709
▁swarm	-13710
▁teddy	-13711
▁tense	-13712
▁unple	-13713
▁urges	-13714
▁ushah	-13715
atively	-13716
clearly	-13717
compass	-13718
htaking	-13719
iogenic	-13720
ipotent	-13721
itating	-13722
ulously	-13723
▁abused	-13724
▁acumen	-13725
▁archie	-13726
▁artery	-13727
▁aurora	-13728
▁ballot	-13729
▁bonobo	-13730
▁bumble	-13731
▁calibr	-13732
▁carved	-13733
▁creepy	-13734
▁crises	-13735
▁evange	-13736
▁flawed	-13737
▁framed	-13738
▁galvan	-13739
▁hillis	-13740
▁humane	-13741
▁ideals	-13742
▁incons	-13743
▁innate	-13744
▁insign	-13745
▁joyful	-13746
▁junior	-13747
▁latter	-13748
▁legged	-13749
▁mangro	-13750
▁nitric	-13751
▁nuclei	-13752
▁pasted	-13753
▁polish	-13754
▁polite	-13755
▁prohib	-13756
▁prompt	-13757
▁regain	-13758
▁retrie	-13759
▁rovers	-13760
▁rubble	-13761
▁rupees	-13762
▁sequel	-13763
▁serial	-13764
▁spores	-13765
▁stocks	-13766
▁strive	-13767
▁sydney	-13768
▁taiwan	-13769
▁tapest	-13770
▁teapot	-13771
▁tehran	-13772
▁tender	-13773
▁titled	-13774
adelphia	-13775
▁500,000	-13776
▁antiang	-13777
▁anxious	-13778
▁apocaly	-13779
▁assumes	-13780
▁augment	-13781
▁barbara	-13782
▁blogger	-13783
▁builder	-13784
▁carrier	-13785
▁collide	-13786
▁cookies	-13787
▁dawkins	-13788
▁dennett	-13789
▁distill	-13790
▁disturb	-13791
▁exhilar	-13792
▁faculty	-13793
▁fitness	-13794
▁fitting	-13795
▁flipped	-13796
▁funders	-13797
▁grasses	-13798
▁inquiry	-13799
▁madness	-13800
▁mahmoud	-13801
▁margins	-13802
▁marries	-13803
▁messing	-13804
▁mocking	-13805
▁payload	-13806
▁persons	-13807
▁pitches	-13808
▁popping	-13809
▁portray	-13810
▁prayers	-13811
▁preview	-13812
▁ringing	-13813
▁servant	-13814
▁shuttle	-13815
▁signing	-13816
▁springs	-13817
▁superno	-13818
▁tunisia	-13819
▁unthink	-13820
▁watches	-13821
▁worries	-13822
astically	-13823
▁academia	-13824
▁adjacent	-13825
▁alarming	-13826
▁archives	-13827
▁arteries	-13828
▁backward	-13829
▁bothered	-13830
▁contacts	-13831
▁crashing	-13832
▁dementia	-13833
▁depended	-13834
▁disposal	-13835
▁drifting	-13836
▁efficacy	-13837
▁entitled	-13838
▁epilepsy	-13839
▁executed	-13840
▁extremes	-13841
▁fairness	-13842
▁feminism	-13843
▁founders	-13844
▁holistic	-13845
▁imperial	-13846
▁implicit	-13847
▁inferior	-13848
▁journals	-13849
▁lifelike	-13850
▁marshall	-13851
▁maryland	-13852
▁maternal	-13853
▁meanings	-13854
▁minimize	-13855
▁mismatch	-13856
▁monument	-13857
▁mutually	-13858
▁overseas	-13859
▁packaged	-13860
▁philippe	-13861
▁predomin	-13862
▁reminder	-13863
▁respects	-13864
▁restored	-13865
▁richness	-13866
▁sediment	-13867
▁serendip	-13868
▁speeding	-13869
▁suitcase	-13870
▁suppress	-13871
▁tolerant	-13872
▁tortured	-13873
▁toughest	-13874
▁tutoring	-13875
▁unnecess	-13876
▁ambiguous	-13877
▁antarctic	-13878
▁apartheid	-13879
▁borrowing	-13880
▁carbonate	-13881
▁civilians	-13882
▁collector	-13883
▁communism	-13884
▁corridors	-13885
▁cosmology	-13886
▁disparate	-13887
▁dispersed	-13888
▁dominance	-13889
▁excessive	-13890
▁extremism	-13891
▁genuinely	-13892
▁geometric	-13893
▁hiroshima	-13894
▁histories	-13895
▁honeybees	-13896
▁hungarian	-13897
▁intrinsic	-13898
▁marriages	-13899
▁memorable	-13900
▁messaging	-13901
▁microblog	-13902
▁motivates	-13903
▁paragraph	-13904
▁pathology	-13905
▁petroleum	-13906
▁pleasures	-13907
▁preferred	-13908
▁prescribe	-13909
▁projector	-13910
▁reinforce	-13911
▁remembers	-13912
▁riverside	-13913
▁scenarios	-13914
▁shoreline	-13915
▁slaughter	-13916
▁strongest	-13917
▁tinkering	-13918
▁unfolding	-13919
▁victorian	-13920
▁whirlwind	-13921
▁workshops	-13922
▁animations	-13923
▁clinically	-13924
▁compatible	-13925
▁conception	-13926
▁counseling	-13927
▁devastated	-13928
▁diplomatic	-13929
▁eliminated	-13930
▁executives	-13931
▁freshwater	-13932
▁guaranteed	-13933
▁hyperbolic	-13934
▁hypotheses	-13935
▁improbable	-13936
▁inappropri	-13937
▁incomplete	-13938
▁liberating	-13939
▁limitation	-13940
▁multimedia	-13941
▁pioneering	-13942
▁plasticity	-13943
▁proteomics	-13944
▁rebuilding	-13945
▁replicator	-13946
▁revelation	-13947
▁separating	-13948
▁structured	-13949
▁translates	-13950
▁unpleasant	-13951
▁aerodynamic	-13952
▁backgrounds	-13953
▁battlefield	-13954
▁certificate	-13955
▁commercials	-13956
▁counterpart	-13957
▁diagnostics	-13958
▁nonviolence	-13959
▁nutritional	-13960
▁participant	-13961
▁persistence	-13962
▁preferences	-13963
▁progressive	-13964
▁susceptible	-13965
▁terrestrial	-13966
▁accumulation	-13967
▁achievements	-13968
▁arrangements	-13969
▁breathtaking	-13970
▁illumination	-13971
▁instrumental	-13972
▁philadelphia	-13973
▁requirements	-13974
▁subconscious	-13975
▁supermarkets	-13976
▁characterized	-13977
▁collaborating	-13978
▁differentiate	-13979
▁gratification	-13980
▁antiangiogenic	-13981
▁neuroscientists	-13982
jm	-13983
kh	-13984
rd	-13985
sb	-13986
400	-13987
ahn	-13988
aka	-13989
cam	-13990
cur	-13991
dav	-13992
eor	-13993
gar	-13994
hir	-13995
ibo	-13996
ige	-13997
lav	-13998
mil	-13999
oux	-14000
ppy	-14001
sum	-14002
urb	-14003
uri	-14004
urt	-14005
wey	-14006
yss	-14007
▁53	-14008
▁ul	-14009
acco	-14010
acht	-14011
anth	-14012
asma	-14013
bott	-14014
bury	-14015
dled	-14016
gian	-14017
give	-14018
heit	-14019
iary	-14020
irts	-14021
itre	-14022
izzy	-14023
leys	-14024
meer	-14025
nick	-14026
olia	-14027
rand	-14028
tebr	-14029
vana	-14030
velt	-14031
warz	-14032
worm	-14033
▁13.	-14034
▁203	-14035
▁abc	-14036
▁ald	-14037
▁ank	-14038
▁aye	-14039
▁bum	-14040
▁coh	-14041
▁dye	-14042
▁joh	-14043
▁mrs	-14044
▁nih	-14045
▁pas	-14046
▁paw	-14047
▁pia	-14048
▁tel	-14049
▁xen	-14050
bucks	-14051
david	-14052
edron	-14053
esive	-14054
icorn	-14055
igate	-14056
imity	-14057
isive	-14058
kings	-14059
later	-14060
marks	-14061
nacle	-14062
occup	-14063
ogene	-14064
owitz	-14065
pable	-14066
rolog	-14067
theon	-14068
tyard	-14069
uably	-14070
welve	-14071
works	-14072
▁2009	-14073
▁bali	-14074
▁beep	-14075
▁brah	-14076
▁clut	-14077
▁cuba	-14078
▁cycl	-14079
▁epit	-14080
▁euph	-14081
▁fade	-14082
▁gill	-14083
▁glut	-14084
▁haul	-14085
▁heap	-14086
▁herb	-14087
▁jeal	-14088
▁leah	-14089
▁maze	-14090
▁mong	-14091
▁muff	-14092
▁opec	-14093
▁pork	-14094
▁resh	-14095
▁rhet	-14096
▁riot	-14097
▁ryan	-14098
▁sant	-14099
▁saul	-14100
▁skim	-14101
▁spam	-14102
▁spon	-14103
▁sush	-14104
▁vend	-14105
▁wool	-14106
ancies	-14107
anship	-14108
asters	-14109
enegal	-14110
icides	-14111
icular	-14112
issors	-14113
itives	-14114
otrans	-14115
ounced	-14116
riends	-14117
veling	-14118
▁1994,	-14119
▁1995,	-14120
▁ahmed	-14121
▁arsen	-14122
▁beard	-14123
▁billy	-14124
▁binds	-14125
▁blues	-14126
▁buddy	-14127
▁cobra	-14128
▁comet	-14129
▁cuban	-14130
▁desal	-14131
▁dolby	-14132
▁draft	-14133
▁drank	-14134
▁dubai	-14135
▁euros	-14136
▁firef	-14137
▁fragr	-14138
▁fring	-14139
▁glenn	-14140
▁greed	-14141
▁humil	-14142
▁ivory	-14143
▁julie	-14144
▁khmer	-14145
▁meyer	-14146
▁molas	-14147
▁nerdy	-14148
▁nests	-14149
▁obliv	-14150
▁orang	-14151
▁overd	-14152
▁penic	-14153
▁polls	-14154
▁postc	-14155
▁reinv	-14156
▁reply	-14157
▁ruler	-14158
▁satan	-14159
▁saves	-14160
▁seren	-14161
▁skins	-14162
▁slime	-14163
▁suite	-14164
▁theor	-14165
▁typed	-14166
▁umbre	-14167
▁unlim	-14168
▁urine	-14169
▁verbs	-14170
▁volts	-14171
▁zeros	-14172
athetic	-14173
healthy	-14174
imental	-14175
orative	-14176
osevelt	-14177
renheit	-14178
ressive	-14179
richard	-14180
usively	-14181
▁acquis	-14182
▁alfred	-14183
▁amanda	-14184
▁austin	-14185
▁autobi	-14186
▁banana	-14187
▁barbie	-14188
▁closet	-14189
▁crunch	-14190
▁depict	-14191
▁embryo	-14192
▁flames	-14193
▁fooled	-14194
▁gadget	-14195
▁giants	-14196
▁hebrew	-14197
▁herbie	-14198
▁hubble	-14199
▁kenyan	-14200
▁kindly	-14201
▁lastly	-14202
▁marshm	-14203
▁messed	-14204
▁mister	-14205
▁modify	-14206
▁newest	-14207
▁opaque	-14208
▁parrot	-14209
▁pastor	-14210
▁phosph	-14211
▁pissed	-14212
▁potter	-14213
▁propri	-14214
▁provin	-14215
▁rabbit	-14216
▁racism	-14217
▁raging	-14218
▁ripped	-14219
▁rushed	-14220
▁spines	-14221
▁stacks	-14222
▁stakes	-14223
▁starch	-14224
▁thirst	-14225
▁tyrann	-14226
▁uncont	-14227
▁vastly	-14228
▁wounds	-14229
▁yields	-14230
ictional	-14231
▁acronym	-14232
▁alright	-14233
▁applaud	-14234
▁archety	-14235
▁assured	-14236
▁austria	-14237
▁biochem	-14238
▁bladder	-14239
▁bombers	-14240
▁captcha	-14241
▁cheated	-14242
▁compose	-14243
▁compost	-14244
▁confuse	-14245
▁crochet	-14246
▁disprop	-14247
▁drifted	-14248
▁dumping	-14249
▁elastic	-14250
▁emitted	-14251
▁expands	-14252
▁finland	-14253
▁fishery	-14254
▁genital	-14255
▁genomic	-14256
▁georget	-14257
▁germans	-14258
▁gharial	-14259
▁imposed	-14260
▁killers	-14261
▁lacking	-14262
▁langley	-14263
▁lexicon	-14264
▁maggots	-14265
▁mahatma	-14266
▁modeled	-14267
▁municip	-14268
▁narciss	-14269
▁obscure	-14270
▁outward	-14271
▁parabol	-14272
▁pension	-14273
▁photons	-14274
▁pigeons	-14275
▁pumping	-14276
▁puppets	-14277
▁relying	-14278
▁revenge	-14279
▁russell	-14280
▁scholar	-14281
▁schwarz	-14282
▁sensual	-14283
▁shadows	-14284
▁sincere	-14285
▁stanley	-14286
▁storing	-14287
▁strokes	-14288
▁suffers	-14289
▁tactics	-14290
▁tempest	-14291
▁ticking	-14292
▁tougher	-14293
▁tourism	-14294
▁twisted	-14295
▁unaware	-14296
▁unleash	-14297
▁utopian	-14298
▁vermeer	-14299
▁voyager	-14300
▁walmart	-14301
▁adequate	-14302
▁advocacy	-14303
▁arguably	-14304
▁arriving	-14305
▁balances	-14306
▁bloggers	-14307
▁chambers	-14308
▁colleges	-14309
▁commands	-14310
▁concerts	-14311
▁cymatics	-14312
▁damaging	-14313
▁defeated	-14314
▁discount	-14315
▁discrete	-14316
▁dragging	-14317
▁enhanced	-14318
▁enriquez	-14319
▁extrater	-14320
▁fearless	-14321
▁flashing	-14322
▁flipping	-14323
▁fountain	-14324
▁humidity	-14325
▁imprison	-14326
▁injected	-14327
▁journeys	-14328
▁memorize	-14329
▁mitchell	-14330
▁mortgage	-14331
▁multitas	-14332
▁petition	-14333
▁preoccup	-14334
▁proposes	-14335
▁resemble	-14336
▁resonate	-14337
▁responds	-14338
▁rigorous	-14339
▁scalable	-14340
▁secretly	-14341
▁severely	-14342
▁simplify	-14343
▁snapshot	-14344
▁speeches	-14345
▁subtract	-14346
▁survivor	-14347
▁tectonic	-14348
▁ushahidi	-14349
▁windmill	-14350
▁workshop	-14351
▁yearning	-14352
especially	-14353
▁addresses	-14354
▁bioenergy	-14355
▁biography	-14356
▁broadband	-14357
▁charities	-14358
▁commander	-14359
▁communist	-14360
▁courtyard	-14361
▁crocodile	-14362
▁disbelief	-14363
▁displayed	-14364
▁elevation	-14365
▁enjoyable	-14366
▁festivals	-14367
▁frontiers	-14368
▁fulfilled	-14369
▁hilarious	-14370
▁inability	-14371
▁incidents	-14372
▁inconsist	-14373
▁intensely	-14374
▁intrigued	-14375
▁mainframe	-14376
▁nanoscale	-14377
▁performer	-14378
▁pragmatic	-14379
▁prejudice	-14380
▁proposing	-14381
▁recipient	-14382
▁reconcile	-14383
▁roughness	-14384
▁sovereign	-14385
▁sponsored	-14386
▁starbucks	-14387
▁stockholm	-14388
▁telegraph	-14389
▁troubling	-14390
▁unlimited	-14391
▁beekeepers	-14392
▁cigarettes	-14393
▁contextual	-14394
▁converting	-14395
▁copernicus	-14396
▁disruption	-14397
▁encounters	-14398
▁extraction	-14399
▁fahrenheit	-14400
▁forgetting	-14401
▁intuitions	-14402
▁ironically	-14403
[...]
